{"version":"1.0","truncation":{"max_length":768,"strategy":"LongestFirst","stride":0},"padding":{"strategy":{"Fixed":768},"direction":"Right","pad_to_multiple_of":null,"pad_id":42002,"pad_type_id":0,"pad_token":"<|pad|>"},"added_tokens":[{"id":1,"special":true,"content":"[UNK]","single_word":false,"lstrip":false,"rstrip":false,"normalized":false},{"id":2,"special":true,"content":"[CLS]","single_word":false,"lstrip":false,"rstrip":false,"normalized":false},{"id":3,"special":true,"content":"[SEP]","single_word":false,"lstrip":false,"rstrip":false,"normalized":false},{"id":4,"special":true,"content":"[MASK]","single_word":false,"lstrip":false,"rstrip":false,"normalized":false},{"id":42000,"special":true,"content":"<|startoftext|>","single_word":false,"lstrip":false,"rstrip":false,"normalized":false},{"id":42001,"special":true,"content":"<|endoftext|>","single_word":false,"lstrip":false,"rstrip":false,"normalized":false},{"id":42002,"special":true,"content":"<|pad|>","single_word":false,"lstrip":false,"rstrip":false,"normalized":false}],"normalizer":{"type":"BertNormalizer","clean_text":true,"handle_chinese_chars":true,"strip_accents":false,"lowercase":true},"pre_tokenizer":{"type":"BertPreTokenizer"},"post_processor":{"type":"TemplateProcessing","single":[{"SpecialToken":{"id":"[CLS]","type_id":0}},{"Sequence":{"id":"A","type_id":0}},{"SpecialToken":{"id":"[SEP]","type_id":0}}],"pair":[{"SpecialToken":{"id":"[CLS]","type_id":0}},{"Sequence":{"id":"A","type_id":0}},{"SpecialToken":{"id":"[SEP]","type_id":0}},{"Sequence":{"id":"B","type_id":1}},{"SpecialToken":{"id":"[SEP]","type_id":1}}],"special_tokens":{"[CLS]":{"id":"[CLS]","ids":[2],"tokens":["[CLS]"]},"[SEP]":{"id":"[SEP]","ids":[3],"tokens":["[SEP]"]}}},"decoder":{"type":"WordPiece","prefix":"##","cleanup":true},"model":{"type":"WordPiece","unk_token":"[UNK]","continuing_subword_prefix":"##","max_input_chars_per_word":100,"vocab":{"[PAD]":0,"[UNK]":1,"[CLS]":2,"[SEP]":3,"[MASK]":4,"[unused0]":5,"[unused1]":6,"[unused2]":7,"[unused3]":8,"[unused4]":9,"[unused5]":10,"[unused6]":11,"[unused7]":12,"[unused8]":13,"[unused9]":14,"[unused10]":15,"[unused11]":16,"[unused12]":17,"[unused13]":18,"[unused14]":19,"[unused15]":20,"[unused16]":21,"[unused17]":22,"[unused18]":23,"[unused19]":24,"[unused20]":25,"[unused21]":26,"[unused22]":27,"[unused23]":28,"[unused24]":29,"[unused25]":30,"[unused26]":31,"[unused27]":32,"[unused28]":33,"[unused29]":34,"[unused30]":35,"[unused31]":36,"[unused32]":37,"[unused33]":38,"[unused34]":39,"[unused35]":40,"[unused36]":41,"[unused37]":42,"[unused38]":43,"[unused39]":44,"[unused40]":45,"[unused41]":46,"[unused42]":47,"[unused43]":48,"[unused44]":49,"[unused45]":50,"[unused46]":51,"[unused47]":52,"[unused48]":53,"[unused49]":54,"[unused50]":55,"[unused51]":56,"[unused52]":57,"[unused53]":58,"[unused54]":59,"[unused55]":60,"[unused56]":61,"[unused57]":62,"[unused58]":63,"[unused59]":64,"[unused60]":65,"[unused61]":66,"[unused62]":67,"[unused63]":68,"[unused64]":69,"[unused65]":70,"[unused66]":71,"[unused67]":72,"[unused68]":73,"[unused69]":74,"[unused70]":75,"[unused71]":76,"[unused72]":77,"[unused73]":78,"[unused74]":79,"[unused75]":80,"[unused76]":81,"[unused77]":82,"[unused78]":83,"[unused79]":84,"[unused80]":85,"[unused81]":86,"[unused82]":87,"[unused83]":88,"[unused84]":89,"[unused85]":90,"[unused86]":91,"[unused87]":92,"[unused88]":93,"[unused89]":94,"[unused90]":95,"[unused91]":96,"[unused92]":97,"[unused93]":98,"[unused94]":99,"[unused95]":100,"[unused96]":101,"[unused97]":102,"[unused98]":103,"[unused99]":104,"[unused100]":105,"[unused101]":106,"[unused102]":107,"[unused103]":108,"[unused104]":109,"[unused105]":110,"[unused106]":111,"[unused107]":112,"[unused108]":113,"[unused109]":114,"[unused110]":115,"[unused111]":116,"[unused112]":117,"[unused113]":118,"[unused114]":119,"[unused115]":120,"[unused116]":121,"[unused117]":122,"[unused118]":123,"[unused119]":124,"[unused120]":125,"[unused121]":126,"[unused122]":127,"[unused123]":128,"[unused124]":129,"[unused125]":130,"[unused126]":131,"[unused127]":132,"[unused128]":133,"[unused129]":134,"[unused130]":135,"[unused131]":136,"[unused132]":137,"[unused133]":138,"[unused134]":139,"[unused135]":140,"[unused136]":141,"[unused137]":142,"[unused138]":143,"[unused139]":144,"[unused140]":145,"[unused141]":146,"[unused142]":147,"[unused143]":148,"[unused144]":149,"[unused145]":150,"[unused146]":151,"[unused147]":152,"[unused148]":153,"[unused149]":154,"[unused150]":155,"[unused151]":156,"[unused152]":157,"[unused153]":158,"[unused154]":159,"[unused155]":160,"[unused156]":161,"[unused157]":162,"[unused158]":163,"[unused159]":164,"[unused160]":165,"[unused161]":166,"[unused162]":167,"[unused163]":168,"[unused164]":169,"[unused165]":170,"[unused166]":171,"[unused167]":172,"[unused168]":173,"[unused169]":174,"[unused170]":175,"[unused171]":176,"[unused172]":177,"[unused173]":178,"[unused174]":179,"[unused175]":180,"[unused176]":181,"[unused177]":182,"[unused178]":183,"[unused179]":184,"[unused180]":185,"[unused181]":186,"[unused182]":187,"[unused183]":188,"[unused184]":189,"[unused185]":190,"[unused186]":191,"[unused187]":192,"[unused188]":193,"[unused189]":194,"[unused190]":195,"[unused191]":196,"[unused192]":197,"[unused193]":198,"[unused194]":199,"[unused195]":200,"[unused196]":201,"[unused197]":202,"[unused198]":203,"[unused199]":204,"[unused200]":205,"[unused201]":206,"[unused202]":207,"[unused203]":208,"[unused204]":209,"[unused205]":210,"[unused206]":211,"[unused207]":212,"[unused208]":213,"[unused209]":214,"[unused210]":215,"[unused211]":216,"[unused212]":217,"[unused213]":218,"[unused214]":219,"[unused215]":220,"[unused216]":221,"[unused217]":222,"[unused218]":223,"[unused219]":224,"[unused220]":225,"[unused221]":226,"[unused222]":227,"[unused223]":228,"[unused224]":229,"[unused225]":230,"[unused226]":231,"[unused227]":232,"[unused228]":233,"[unused229]":234,"[unused230]":235,"[unused231]":236,"[unused232]":237,"[unused233]":238,"[unused234]":239,"[unused235]":240,"[unused236]":241,"[unused237]":242,"[unused238]":243,"[unused239]":244,"[unused240]":245,"[unused241]":246,"[unused242]":247,"[unused243]":248,"[unused244]":249,"[unused245]":250,"[unused246]":251,"[unused247]":252,"[unused248]":253,"[unused249]":254,"[unused250]":255,"[unused251]":256,"[unused252]":257,"[unused253]":258,"[unused254]":259,"[unused255]":260,"[unused256]":261,"[unused257]":262,"[unused258]":263,"[unused259]":264,"[unused260]":265,"[unused261]":266,"[unused262]":267,"[unused263]":268,"[unused264]":269,"[unused265]":270,"[unused266]":271,"[unused267]":272,"[unused268]":273,"[unused269]":274,"[unused270]":275,"[unused271]":276,"[unused272]":277,"[unused273]":278,"[unused274]":279,"[unused275]":280,"[unused276]":281,"[unused277]":282,"[unused278]":283,"[unused279]":284,"[unused280]":285,"[unused281]":286,"[unused282]":287,"[unused283]":288,"[unused284]":289,"[unused285]":290,"[unused286]":291,"[unused287]":292,"[unused288]":293,"[unused289]":294,"[unused290]":295,"[unused291]":296,"[unused292]":297,"[unused293]":298,"[unused294]":299,"[unused295]":300,"[unused296]":301,"[unused297]":302,"[unused298]":303,"[unused299]":304,"[unused300]":305,"[unused301]":306,"[unused302]":307,"[unused303]":308,"[unused304]":309,"[unused305]":310,"[unused306]":311,"[unused307]":312,"[unused308]":313,"[unused309]":314,"[unused310]":315,"[unused311]":316,"[unused312]":317,"[unused313]":318,"[unused314]":319,"[unused315]":320,"[unused316]":321,"[unused317]":322,"[unused318]":323,"[unused319]":324,"[unused320]":325,"[unused321]":326,"[unused322]":327,"[unused323]":328,"[unused324]":329,"[unused325]":330,"[unused326]":331,"[unused327]":332,"[unused328]":333,"[unused329]":334,"[unused330]":335,"[unused331]":336,"[unused332]":337,"[unused333]":338,"[unused334]":339,"[unused335]":340,"[unused336]":341,"[unused337]":342,"[unused338]":343,"[unused339]":344,"[unused340]":345,"[unused341]":346,"[unused342]":347,"[unused343]":348,"[unused344]":349,"[unused345]":350,"[unused346]":351,"[unused347]":352,"[unused348]":353,"[unused349]":354,"[unused350]":355,"[unused351]":356,"[unused352]":357,"[unused353]":358,"[unused354]":359,"[unused355]":360,"[unused356]":361,"[unused357]":362,"[unused358]":363,"[unused359]":364,"[unused360]":365,"[unused361]":366,"[unused362]":367,"[unused363]":368,"[unused364]":369,"[unused365]":370,"[unused366]":371,"[unused367]":372,"[unused368]":373,"[unused369]":374,"[unused370]":375,"[unused371]":376,"[unused372]":377,"[unused373]":378,"[unused374]":379,"[unused375]":380,"[unused376]":381,"[unused377]":382,"[unused378]":383,"[unused379]":384,"[unused380]":385,"[unused381]":386,"[unused382]":387,"[unused383]":388,"[unused384]":389,"[unused385]":390,"[unused386]":391,"[unused387]":392,"[unused388]":393,"[unused389]":394,"[unused390]":395,"[unused391]":396,"[unused392]":397,"[unused393]":398,"[unused394]":399,"[unused395]":400,"[unused396]":401,"[unused397]":402,"[unused398]":403,"[unused399]":404,"[unused400]":405,"[unused401]":406,"[unused402]":407,"[unused403]":408,"[unused404]":409,"[unused405]":410,"[unused406]":411,"[unused407]":412,"[unused408]":413,"[unused409]":414,"[unused410]":415,"[unused411]":416,"[unused412]":417,"[unused413]":418,"[unused414]":419,"[unused415]":420,"[unused416]":421,"[unused417]":422,"[unused418]":423,"[unused419]":424,"[unused420]":425,"[unused421]":426,"[unused422]":427,"[unused423]":428,"[unused424]":429,"[unused425]":430,"[unused426]":431,"[unused427]":432,"[unused428]":433,"[unused429]":434,"[unused430]":435,"[unused431]":436,"[unused432]":437,"[unused433]":438,"[unused434]":439,"[unused435]":440,"[unused436]":441,"[unused437]":442,"[unused438]":443,"[unused439]":444,"[unused440]":445,"[unused441]":446,"[unused442]":447,"[unused443]":448,"[unused444]":449,"[unused445]":450,"[unused446]":451,"[unused447]":452,"[unused448]":453,"[unused449]":454,"[unused450]":455,"[unused451]":456,"[unused452]":457,"[unused453]":458,"[unused454]":459,"[unused455]":460,"[unused456]":461,"[unused457]":462,"[unused458]":463,"[unused459]":464,"[unused460]":465,"[unused461]":466,"[unused462]":467,"[unused463]":468,"[unused464]":469,"[unused465]":470,"[unused466]":471,"[unused467]":472,"[unused468]":473,"[unused469]":474,"[unused470]":475,"[unused471]":476,"[unused472]":477,"[unused473]":478,"[unused474]":479,"[unused475]":480,"[unused476]":481,"[unused477]":482,"[unused478]":483,"[unused479]":484,"[unused480]":485,"[unused481]":486,"[unused482]":487,"[unused483]":488,"[unused484]":489,"[unused485]":490,"[unused486]":491,"[unused487]":492,"[unused488]":493,"[unused489]":494,"[unused490]":495,"[unused491]":496,"[unused492]":497,"[unused493]":498,"[unused494]":499,"[unused495]":500,"[unused496]":501,"[unused497]":502,"[unused498]":503,"[unused499]":504,"[unused500]":505,"[unused501]":506,"[unused502]":507,"[unused503]":508,"[unused504]":509,"[unused505]":510,"[unused506]":511,"[unused507]":512,"[unused508]":513,"[unused509]":514,"[unused510]":515,"[unused511]":516,"[unused512]":517,"[unused513]":518,"[unused514]":519,"[unused515]":520,"[unused516]":521,"[unused517]":522,"[unused518]":523,"[unused519]":524,"[unused520]":525,"[unused521]":526,"[unused522]":527,"[unused523]":528,"[unused524]":529,"[unused525]":530,"[unused526]":531,"[unused527]":532,"[unused528]":533,"[unused529]":534,"[unused530]":535,"[unused531]":536,"[unused532]":537,"[unused533]":538,"[unused534]":539,"[unused535]":540,"[unused536]":541,"[unused537]":542,"[unused538]":543,"[unused539]":544,"[unused540]":545,"[unused541]":546,"[unused542]":547,"[unused543]":548,"[unused544]":549,"[unused545]":550,"[unused546]":551,"[unused547]":552,"[unused548]":553,"[unused549]":554,"[unused550]":555,"[unused551]":556,"[unused552]":557,"[unused553]":558,"[unused554]":559,"[unused555]":560,"[unused556]":561,"[unused557]":562,"[unused558]":563,"[unused559]":564,"[unused560]":565,"[unused561]":566,"[unused562]":567,"[unused563]":568,"[unused564]":569,"[unused565]":570,"[unused566]":571,"[unused567]":572,"[unused568]":573,"[unused569]":574,"[unused570]":575,"[unused571]":576,"[unused572]":577,"[unused573]":578,"[unused574]":579,"[unused575]":580,"[unused576]":581,"[unused577]":582,"[unused578]":583,"[unused579]":584,"[unused580]":585,"[unused581]":586,"[unused582]":587,"[unused583]":588,"[unused584]":589,"[unused585]":590,"[unused586]":591,"[unused587]":592,"[unused588]":593,"[unused589]":594,"[unused590]":595,"[unused591]":596,"[unused592]":597,"[unused593]":598,"[unused594]":599,"[unused595]":600,"[unused596]":601,"[unused597]":602,"[unused598]":603,"[unused599]":604,"[unused600]":605,"[unused601]":606,"[unused602]":607,"[unused603]":608,"[unused604]":609,"[unused605]":610,"[unused606]":611,"[unused607]":612,"[unused608]":613,"[unused609]":614,"[unused610]":615,"[unused611]":616,"[unused612]":617,"[unused613]":618,"[unused614]":619,"[unused615]":620,"[unused616]":621,"[unused617]":622,"[unused618]":623,"[unused619]":624,"[unused620]":625,"[unused621]":626,"[unused622]":627,"[unused623]":628,"[unused624]":629,"[unused625]":630,"[unused626]":631,"[unused627]":632,"[unused628]":633,"[unused629]":634,"[unused630]":635,"[unused631]":636,"[unused632]":637,"[unused633]":638,"[unused634]":639,"[unused635]":640,"[unused636]":641,"[unused637]":642,"[unused638]":643,"[unused639]":644,"[unused640]":645,"[unused641]":646,"[unused642]":647,"[unused643]":648,"[unused644]":649,"[unused645]":650,"[unused646]":651,"[unused647]":652,"[unused648]":653,"[unused649]":654,"[unused650]":655,"[unused651]":656,"[unused652]":657,"[unused653]":658,"[unused654]":659,"[unused655]":660,"[unused656]":661,"[unused657]":662,"[unused658]":663,"[unused659]":664,"[unused660]":665,"[unused661]":666,"[unused662]":667,"[unused663]":668,"[unused664]":669,"[unused665]":670,"[unused666]":671,"[unused667]":672,"[unused668]":673,"[unused669]":674,"[unused670]":675,"[unused671]":676,"[unused672]":677,"[unused673]":678,"[unused674]":679,"[unused675]":680,"[unused676]":681,"[unused677]":682,"[unused678]":683,"[unused679]":684,"[unused680]":685,"[unused681]":686,"[unused682]":687,"[unused683]":688,"[unused684]":689,"[unused685]":690,"[unused686]":691,"[unused687]":692,"[unused688]":693,"[unused689]":694,"[unused690]":695,"[unused691]":696,"[unused692]":697,"[unused693]":698,"[unused694]":699,"[unused695]":700,"[unused696]":701,"[unused697]":702,"[unused698]":703,"[unused699]":704,"[unused700]":705,"[unused701]":706,"[unused702]":707,"[unused703]":708,"[unused704]":709,"[unused705]":710,"[unused706]":711,"[unused707]":712,"[unused708]":713,"[unused709]":714,"[unused710]":715,"[unused711]":716,"[unused712]":717,"[unused713]":718,"[unused714]":719,"[unused715]":720,"[unused716]":721,"[unused717]":722,"[unused718]":723,"[unused719]":724,"[unused720]":725,"[unused721]":726,"[unused722]":727,"[unused723]":728,"[unused724]":729,"[unused725]":730,"[unused726]":731,"[unused727]":732,"[unused728]":733,"[unused729]":734,"[unused730]":735,"[unused731]":736,"[unused732]":737,"[unused733]":738,"[unused734]":739,"[unused735]":740,"[unused736]":741,"[unused737]":742,"[unused738]":743,"[unused739]":744,"[unused740]":745,"[unused741]":746,"[unused742]":747,"[unused743]":748,"[unused744]":749,"[unused745]":750,"[unused746]":751,"[unused747]":752,"[unused748]":753,"[unused749]":754,"[unused750]":755,"[unused751]":756,"[unused752]":757,"[unused753]":758,"[unused754]":759,"[unused755]":760,"[unused756]":761,"[unused757]":762,"[unused758]":763,"[unused759]":764,"[unused760]":765,"[unused761]":766,"[unused762]":767,"[unused763]":768,"[unused764]":769,"[unused765]":770,"[unused766]":771,"[unused767]":772,"[unused768]":773,"[unused769]":774,"[unused770]":775,"[unused771]":776,"[unused772]":777,"[unused773]":778,"[unused774]":779,"[unused775]":780,"[unused776]":781,"[unused777]":782,"[unused778]":783,"[unused779]":784,"[unused780]":785,"[unused781]":786,"[unused782]":787,"[unused783]":788,"[unused784]":789,"[unused785]":790,"[unused786]":791,"[unused787]":792,"[unused788]":793,"[unused789]":794,"[unused790]":795,"[unused791]":796,"[unused792]":797,"[unused793]":798,"[unused794]":799,"[unused795]":800,"[unused796]":801,"[unused797]":802,"[unused798]":803,"[unused799]":804,"[unused800]":805,"[unused801]":806,"[unused802]":807,"[unused803]":808,"[unused804]":809,"[unused805]":810,"[unused806]":811,"[unused807]":812,"[unused808]":813,"[unused809]":814,"[unused810]":815,"[unused811]":816,"[unused812]":817,"[unused813]":818,"[unused814]":819,"[unused815]":820,"[unused816]":821,"[unused817]":822,"[unused818]":823,"[unused819]":824,"[unused820]":825,"[unused821]":826,"[unused822]":827,"[unused823]":828,"[unused824]":829,"[unused825]":830,"[unused826]":831,"[unused827]":832,"[unused828]":833,"[unused829]":834,"[unused830]":835,"[unused831]":836,"[unused832]":837,"[unused833]":838,"[unused834]":839,"[unused835]":840,"[unused836]":841,"[unused837]":842,"[unused838]":843,"[unused839]":844,"[unused840]":845,"[unused841]":846,"[unused842]":847,"[unused843]":848,"[unused844]":849,"[unused845]":850,"[unused846]":851,"[unused847]":852,"[unused848]":853,"[unused849]":854,"[unused850]":855,"[unused851]":856,"[unused852]":857,"[unused853]":858,"[unused854]":859,"[unused855]":860,"[unused856]":861,"[unused857]":862,"[unused858]":863,"[unused859]":864,"[unused860]":865,"[unused861]":866,"[unused862]":867,"[unused863]":868,"[unused864]":869,"[unused865]":870,"[unused866]":871,"[unused867]":872,"[unused868]":873,"[unused869]":874,"[unused870]":875,"[unused871]":876,"[unused872]":877,"[unused873]":878,"[unused874]":879,"[unused875]":880,"[unused876]":881,"[unused877]":882,"[unused878]":883,"[unused879]":884,"[unused880]":885,"[unused881]":886,"[unused882]":887,"[unused883]":888,"[unused884]":889,"[unused885]":890,"[unused886]":891,"[unused887]":892,"[unused888]":893,"[unused889]":894,"[unused890]":895,"[unused891]":896,"[unused892]":897,"[unused893]":898,"[unused894]":899,"[unused895]":900,"[unused896]":901,"[unused897]":902,"[unused898]":903,"[unused899]":904,"[unused900]":905,"[unused901]":906,"[unused902]":907,"[unused903]":908,"[unused904]":909,"[unused905]":910,"[unused906]":911,"[unused907]":912,"[unused908]":913,"[unused909]":914,"[unused910]":915,"[unused911]":916,"[unused912]":917,"[unused913]":918,"[unused914]":919,"[unused915]":920,"[unused916]":921,"[unused917]":922,"[unused918]":923,"[unused919]":924,"[unused920]":925,"[unused921]":926,"[unused922]":927,"[unused923]":928,"[unused924]":929,"[unused925]":930,"[unused926]":931,"[unused927]":932,"[unused928]":933,"[unused929]":934,"[unused930]":935,"[unused931]":936,"[unused932]":937,"[unused933]":938,"[unused934]":939,"[unused935]":940,"[unused936]":941,"[unused937]":942,"[unused938]":943,"[unused939]":944,"[unused940]":945,"[unused941]":946,"[unused942]":947,"[unused943]":948,"[unused944]":949,"[unused945]":950,"[unused946]":951,"[unused947]":952,"[unused948]":953,"[unused949]":954,"[unused950]":955,"[unused951]":956,"[unused952]":957,"[unused953]":958,"[unused954]":959,"[unused955]":960,"[unused956]":961,"[unused957]":962,"[unused958]":963,"[unused959]":964,"[unused960]":965,"[unused961]":966,"[unused962]":967,"[unused963]":968,"[unused964]":969,"[unused965]":970,"[unused966]":971,"[unused967]":972,"[unused968]":973,"[unused969]":974,"[unused970]":975,"[unused971]":976,"[unused972]":977,"[unused973]":978,"[unused974]":979,"[unused975]":980,"[unused976]":981,"[unused977]":982,"[unused978]":983,"[unused979]":984,"[unused980]":985,"[unused981]":986,"[unused982]":987,"[unused983]":988,"[unused984]":989,"[unused985]":990,"[unused986]":991,"[unused987]":992,"[unused988]":993,"[unused989]":994,"[unused990]":995,"[unused991]":996,"[unused992]":997,"[unused993]":998,"[unused994]":999,"[unused995]":1000,"[unused996]":1001,"[unused997]":1002,"[unused998]":1003,"[unused999]":1004,"[unused1000]":1005,"[unused1001]":1006,"[unused1002]":1007,"[unused1003]":1008,"[unused1004]":1009,"[unused1005]":1010,"[unused1006]":1011,"[unused1007]":1012,"[unused1008]":1013,"[unused1009]":1014,"[unused1010]":1015,"[unused1011]":1016,"[unused1012]":1017,"[unused1013]":1018,"[unused1014]":1019,"[unused1015]":1020,"[unused1016]":1021,"[unused1017]":1022,"[unused1018]":1023,"[unused1019]":1024,"[unused1020]":1025,"[unused1021]":1026,"[unused1022]":1027,"[unused1023]":1028,"[unused1024]":1029,"[unused1025]":1030,"[unused1026]":1031,"[unused1027]":1032,"[unused1028]":1033,"[unused1029]":1034,"[unused1030]":1035,"[unused1031]":1036,"[unused1032]":1037,"[unused1033]":1038,"[unused1034]":1039,"[unused1035]":1040,"[unused1036]":1041,"[unused1037]":1042,"[unused1038]":1043,"[unused1039]":1044,"[unused1040]":1045,"[unused1041]":1046,"[unused1042]":1047,"[unused1043]":1048,"[unused1044]":1049,"[unused1045]":1050,"[unused1046]":1051,"[unused1047]":1052,"[unused1048]":1053,"[unused1049]":1054,"[unused1050]":1055,"[unused1051]":1056,"[unused1052]":1057,"[unused1053]":1058,"[unused1054]":1059,"[unused1055]":1060,"[unused1056]":1061,"[unused1057]":1062,"[unused1058]":1063,"[unused1059]":1064,"[unused1060]":1065,"[unused1061]":1066,"[unused1062]":1067,"[unused1063]":1068,"[unused1064]":1069,"[unused1065]":1070,"[unused1066]":1071,"[unused1067]":1072,"[unused1068]":1073,"[unused1069]":1074,"[unused1070]":1075,"[unused1071]":1076,"[unused1072]":1077,"[unused1073]":1078,"[unused1074]":1079,"[unused1075]":1080,"[unused1076]":1081,"[unused1077]":1082,"[unused1078]":1083,"[unused1079]":1084,"[unused1080]":1085,"[unused1081]":1086,"[unused1082]":1087,"[unused1083]":1088,"[unused1084]":1089,"[unused1085]":1090,"[unused1086]":1091,"[unused1087]":1092,"[unused1088]":1093,"[unused1089]":1094,"[unused1090]":1095,"[unused1091]":1096,"[unused1092]":1097,"[unused1093]":1098,"[unused1094]":1099,"[unused1095]":1100,"[unused1096]":1101,"[unused1097]":1102,"[unused1098]":1103,"[unused1099]":1104,"[unused1100]":1105,"[unused1101]":1106,"[unused1102]":1107,"[unused1103]":1108,"[unused1104]":1109,"[unused1105]":1110,"[unused1106]":1111,"[unused1107]":1112,"[unused1108]":1113,"[unused1109]":1114,"[unused1110]":1115,"[unused1111]":1116,"[unused1112]":1117,"[unused1113]":1118,"[unused1114]":1119,"[unused1115]":1120,"[unused1116]":1121,"[unused1117]":1122,"[unused1118]":1123,"[unused1119]":1124,"[unused1120]":1125,"[unused1121]":1126,"[unused1122]":1127,"[unused1123]":1128,"[unused1124]":1129,"[unused1125]":1130,"[unused1126]":1131,"[unused1127]":1132,"[unused1128]":1133,"[unused1129]":1134,"[unused1130]":1135,"[unused1131]":1136,"[unused1132]":1137,"[unused1133]":1138,"[unused1134]":1139,"[unused1135]":1140,"[unused1136]":1141,"[unused1137]":1142,"[unused1138]":1143,"[unused1139]":1144,"[unused1140]":1145,"[unused1141]":1146,"[unused1142]":1147,"[unused1143]":1148,"[unused1144]":1149,"[unused1145]":1150,"[unused1146]":1151,"[unused1147]":1152,"[unused1148]":1153,"[unused1149]":1154,"[unused1150]":1155,"[unused1151]":1156,"[unused1152]":1157,"[unused1153]":1158,"[unused1154]":1159,"[unused1155]":1160,"[unused1156]":1161,"[unused1157]":1162,"[unused1158]":1163,"[unused1159]":1164,"[unused1160]":1165,"[unused1161]":1166,"[unused1162]":1167,"[unused1163]":1168,"[unused1164]":1169,"[unused1165]":1170,"[unused1166]":1171,"[unused1167]":1172,"[unused1168]":1173,"[unused1169]":1174,"[unused1170]":1175,"[unused1171]":1176,"[unused1172]":1177,"[unused1173]":1178,"[unused1174]":1179,"[unused1175]":1180,"[unused1176]":1181,"[unused1177]":1182,"[unused1178]":1183,"[unused1179]":1184,"[unused1180]":1185,"[unused1181]":1186,"[unused1182]":1187,"[unused1183]":1188,"[unused1184]":1189,"[unused1185]":1190,"[unused1186]":1191,"[unused1187]":1192,"[unused1188]":1193,"[unused1189]":1194,"[unused1190]":1195,"[unused1191]":1196,"[unused1192]":1197,"[unused1193]":1198,"[unused1194]":1199,"[unused1195]":1200,"[unused1196]":1201,"[unused1197]":1202,"[unused1198]":1203,"[unused1199]":1204,"[unused1200]":1205,"[unused1201]":1206,"[unused1202]":1207,"[unused1203]":1208,"[unused1204]":1209,"[unused1205]":1210,"[unused1206]":1211,"[unused1207]":1212,"[unused1208]":1213,"[unused1209]":1214,"[unused1210]":1215,"[unused1211]":1216,"[unused1212]":1217,"[unused1213]":1218,"[unused1214]":1219,"[unused1215]":1220,"[unused1216]":1221,"[unused1217]":1222,"[unused1218]":1223,"[unused1219]":1224,"[unused1220]":1225,"[unused1221]":1226,"[unused1222]":1227,"[unused1223]":1228,"[unused1224]":1229,"[unused1225]":1230,"[unused1226]":1231,"[unused1227]":1232,"[unused1228]":1233,"[unused1229]":1234,"[unused1230]":1235,"[unused1231]":1236,"[unused1232]":1237,"[unused1233]":1238,"[unused1234]":1239,"[unused1235]":1240,"[unused1236]":1241,"[unused1237]":1242,"[unused1238]":1243,"[unused1239]":1244,"[unused1240]":1245,"[unused1241]":1246,"[unused1242]":1247,"[unused1243]":1248,"[unused1244]":1249,"[unused1245]":1250,"[unused1246]":1251,"[unused1247]":1252,"[unused1248]":1253,"[unused1249]":1254,"[unused1250]":1255,"[unused1251]":1256,"[unused1252]":1257,"[unused1253]":1258,"[unused1254]":1259,"[unused1255]":1260,"[unused1256]":1261,"[unused1257]":1262,"[unused1258]":1263,"[unused1259]":1264,"[unused1260]":1265,"[unused1261]":1266,"[unused1262]":1267,"[unused1263]":1268,"[unused1264]":1269,"[unused1265]":1270,"[unused1266]":1271,"[unused1267]":1272,"[unused1268]":1273,"[unused1269]":1274,"[unused1270]":1275,"[unused1271]":1276,"[unused1272]":1277,"[unused1273]":1278,"[unused1274]":1279,"[unused1275]":1280,"[unused1276]":1281,"[unused1277]":1282,"[unused1278]":1283,"[unused1279]":1284,"[unused1280]":1285,"[unused1281]":1286,"[unused1282]":1287,"[unused1283]":1288,"[unused1284]":1289,"[unused1285]":1290,"[unused1286]":1291,"[unused1287]":1292,"[unused1288]":1293,"[unused1289]":1294,"[unused1290]":1295,"[unused1291]":1296,"[unused1292]":1297,"[unused1293]":1298,"[unused1294]":1299,"[unused1295]":1300,"[unused1296]":1301,"[unused1297]":1302,"[unused1298]":1303,"[unused1299]":1304,"[unused1300]":1305,"[unused1301]":1306,"[unused1302]":1307,"[unused1303]":1308,"[unused1304]":1309,"[unused1305]":1310,"[unused1306]":1311,"[unused1307]":1312,"[unused1308]":1313,"[unused1309]":1314,"[unused1310]":1315,"[unused1311]":1316,"[unused1312]":1317,"[unused1313]":1318,"[unused1314]":1319,"[unused1315]":1320,"[unused1316]":1321,"[unused1317]":1322,"[unused1318]":1323,"[unused1319]":1324,"[unused1320]":1325,"[unused1321]":1326,"[unused1322]":1327,"[unused1323]":1328,"[unused1324]":1329,"[unused1325]":1330,"[unused1326]":1331,"[unused1327]":1332,"[unused1328]":1333,"[unused1329]":1334,"[unused1330]":1335,"[unused1331]":1336,"[unused1332]":1337,"[unused1333]":1338,"[unused1334]":1339,"[unused1335]":1340,"[unused1336]":1341,"[unused1337]":1342,"[unused1338]":1343,"[unused1339]":1344,"[unused1340]":1345,"[unused1341]":1346,"[unused1342]":1347,"[unused1343]":1348,"[unused1344]":1349,"[unused1345]":1350,"[unused1346]":1351,"[unused1347]":1352,"[unused1348]":1353,"[unused1349]":1354,"[unused1350]":1355,"[unused1351]":1356,"[unused1352]":1357,"[unused1353]":1358,"[unused1354]":1359,"[unused1355]":1360,"[unused1356]":1361,"[unused1357]":1362,"[unused1358]":1363,"[unused1359]":1364,"[unused1360]":1365,"[unused1361]":1366,"[unused1362]":1367,"[unused1363]":1368,"[unused1364]":1369,"[unused1365]":1370,"[unused1366]":1371,"[unused1367]":1372,"[unused1368]":1373,"[unused1369]":1374,"[unused1370]":1375,"[unused1371]":1376,"[unused1372]":1377,"[unused1373]":1378,"[unused1374]":1379,"[unused1375]":1380,"[unused1376]":1381,"[unused1377]":1382,"[unused1378]":1383,"[unused1379]":1384,"[unused1380]":1385,"[unused1381]":1386,"[unused1382]":1387,"[unused1383]":1388,"[unused1384]":1389,"[unused1385]":1390,"[unused1386]":1391,"[unused1387]":1392,"[unused1388]":1393,"[unused1389]":1394,"[unused1390]":1395,"[unused1391]":1396,"[unused1392]":1397,"[unused1393]":1398,"[unused1394]":1399,"[unused1395]":1400,"[unused1396]":1401,"[unused1397]":1402,"[unused1398]":1403,"[unused1399]":1404,"[unused1400]":1405,"[unused1401]":1406,"[unused1402]":1407,"[unused1403]":1408,"[unused1404]":1409,"[unused1405]":1410,"[unused1406]":1411,"[unused1407]":1412,"[unused1408]":1413,"[unused1409]":1414,"[unused1410]":1415,"[unused1411]":1416,"[unused1412]":1417,"[unused1413]":1418,"[unused1414]":1419,"[unused1415]":1420,"[unused1416]":1421,"[unused1417]":1422,"[unused1418]":1423,"[unused1419]":1424,"[unused1420]":1425,"[unused1421]":1426,"[unused1422]":1427,"[unused1423]":1428,"[unused1424]":1429,"[unused1425]":1430,"[unused1426]":1431,"[unused1427]":1432,"[unused1428]":1433,"[unused1429]":1434,"[unused1430]":1435,"[unused1431]":1436,"[unused1432]":1437,"[unused1433]":1438,"[unused1434]":1439,"[unused1435]":1440,"[unused1436]":1441,"[unused1437]":1442,"[unused1438]":1443,"[unused1439]":1444,"[unused1440]":1445,"[unused1441]":1446,"[unused1442]":1447,"[unused1443]":1448,"[unused1444]":1449,"[unused1445]":1450,"[unused1446]":1451,"[unused1447]":1452,"[unused1448]":1453,"[unused1449]":1454,"[unused1450]":1455,"[unused1451]":1456,"[unused1452]":1457,"[unused1453]":1458,"[unused1454]":1459,"[unused1455]":1460,"[unused1456]":1461,"[unused1457]":1462,"[unused1458]":1463,"[unused1459]":1464,"[unused1460]":1465,"[unused1461]":1466,"[unused1462]":1467,"[unused1463]":1468,"[unused1464]":1469,"[unused1465]":1470,"[unused1466]":1471,"[unused1467]":1472,"[unused1468]":1473,"[unused1469]":1474,"[unused1470]":1475,"[unused1471]":1476,"[unused1472]":1477,"[unused1473]":1478,"[unused1474]":1479,"[unused1475]":1480,"[unused1476]":1481,"[unused1477]":1482,"[unused1478]":1483,"[unused1479]":1484,"[unused1480]":1485,"[unused1481]":1486,"[unused1482]":1487,"[unused1483]":1488,"[unused1484]":1489,"[unused1485]":1490,"[unused1486]":1491,"[unused1487]":1492,"[unused1488]":1493,"[unused1489]":1494,"[unused1490]":1495,"[unused1491]":1496,"[unused1492]":1497,"[unused1493]":1498,"[unused1494]":1499,"[unused1495]":1500,"[unused1496]":1501,"[unused1497]":1502,"[unused1498]":1503,"[unused1499]":1504,"[unused1500]":1505,"[unused1501]":1506,"[unused1502]":1507,"[unused1503]":1508,"[unused1504]":1509,"[unused1505]":1510,"[unused1506]":1511,"[unused1507]":1512,"[unused1508]":1513,"[unused1509]":1514,"[unused1510]":1515,"[unused1511]":1516,"[unused1512]":1517,"[unused1513]":1518,"[unused1514]":1519,"[unused1515]":1520,"[unused1516]":1521,"[unused1517]":1522,"[unused1518]":1523,"[unused1519]":1524,"[unused1520]":1525,"[unused1521]":1526,"[unused1522]":1527,"[unused1523]":1528,"[unused1524]":1529,"[unused1525]":1530,"[unused1526]":1531,"[unused1527]":1532,"[unused1528]":1533,"[unused1529]":1534,"[unused1530]":1535,"[unused1531]":1536,"[unused1532]":1537,"[unused1533]":1538,"[unused1534]":1539,"[unused1535]":1540,"[unused1536]":1541,"[unused1537]":1542,"[unused1538]":1543,"[unused1539]":1544,"[unused1540]":1545,"[unused1541]":1546,"[unused1542]":1547,"[unused1543]":1548,"[unused1544]":1549,"[unused1545]":1550,"[unused1546]":1551,"[unused1547]":1552,"[unused1548]":1553,"[unused1549]":1554,"[unused1550]":1555,"[unused1551]":1556,"[unused1552]":1557,"[unused1553]":1558,"[unused1554]":1559,"[unused1555]":1560,"[unused1556]":1561,"[unused1557]":1562,"[unused1558]":1563,"[unused1559]":1564,"[unused1560]":1565,"[unused1561]":1566,"[unused1562]":1567,"[unused1563]":1568,"[unused1564]":1569,"[unused1565]":1570,"[unused1566]":1571,"[unused1567]":1572,"[unused1568]":1573,"[unused1569]":1574,"[unused1570]":1575,"[unused1571]":1576,"[unused1572]":1577,"[unused1573]":1578,"[unused1574]":1579,"[unused1575]":1580,"[unused1576]":1581,"[unused1577]":1582,"[unused1578]":1583,"[unused1579]":1584,"[unused1580]":1585,"[unused1581]":1586,"[unused1582]":1587,"[unused1583]":1588,"[unused1584]":1589,"[unused1585]":1590,"[unused1586]":1591,"[unused1587]":1592,"[unused1588]":1593,"[unused1589]":1594,"[unused1590]":1595,"[unused1591]":1596,"[unused1592]":1597,"[unused1593]":1598,"[unused1594]":1599,"[unused1595]":1600,"[unused1596]":1601,"[unused1597]":1602,"[unused1598]":1603,"[unused1599]":1604,"[unused1600]":1605,"[unused1601]":1606,"[unused1602]":1607,"[unused1603]":1608,"[unused1604]":1609,"[unused1605]":1610,"[unused1606]":1611,"[unused1607]":1612,"[unused1608]":1613,"[unused1609]":1614,"[unused1610]":1615,"[unused1611]":1616,"[unused1612]":1617,"[unused1613]":1618,"[unused1614]":1619,"[unused1615]":1620,"[unused1616]":1621,"[unused1617]":1622,"[unused1618]":1623,"[unused1619]":1624,"[unused1620]":1625,"[unused1621]":1626,"[unused1622]":1627,"[unused1623]":1628,"[unused1624]":1629,"[unused1625]":1630,"[unused1626]":1631,"[unused1627]":1632,"[unused1628]":1633,"[unused1629]":1634,"[unused1630]":1635,"[unused1631]":1636,"[unused1632]":1637,"[unused1633]":1638,"[unused1634]":1639,"[unused1635]":1640,"[unused1636]":1641,"[unused1637]":1642,"[unused1638]":1643,"[unused1639]":1644,"[unused1640]":1645,"[unused1641]":1646,"[unused1642]":1647,"[unused1643]":1648,"[unused1644]":1649,"[unused1645]":1650,"[unused1646]":1651,"[unused1647]":1652,"[unused1648]":1653,"[unused1649]":1654,"[unused1650]":1655,"[unused1651]":1656,"[unused1652]":1657,"[unused1653]":1658,"[unused1654]":1659,"[unused1655]":1660,"[unused1656]":1661,"[unused1657]":1662,"[unused1658]":1663,"[unused1659]":1664,"[unused1660]":1665,"[unused1661]":1666,"[unused1662]":1667,"[unused1663]":1668,"[unused1664]":1669,"[unused1665]":1670,"[unused1666]":1671,"[unused1667]":1672,"[unused1668]":1673,"[unused1669]":1674,"[unused1670]":1675,"[unused1671]":1676,"[unused1672]":1677,"[unused1673]":1678,"[unused1674]":1679,"[unused1675]":1680,"[unused1676]":1681,"[unused1677]":1682,"[unused1678]":1683,"[unused1679]":1684,"[unused1680]":1685,"[unused1681]":1686,"[unused1682]":1687,"[unused1683]":1688,"[unused1684]":1689,"[unused1685]":1690,"[unused1686]":1691,"[unused1687]":1692,"[unused1688]":1693,"[unused1689]":1694,"[unused1690]":1695,"[unused1691]":1696,"[unused1692]":1697,"[unused1693]":1698,"[unused1694]":1699,"[unused1695]":1700,"[unused1696]":1701,"[unused1697]":1702,"[unused1698]":1703,"[unused1699]":1704,"[unused1700]":1705,"[unused1701]":1706,"[unused1702]":1707,"[unused1703]":1708,"[unused1704]":1709,"[unused1705]":1710,"[unused1706]":1711,"[unused1707]":1712,"[unused1708]":1713,"[unused1709]":1714,"[unused1710]":1715,"[unused1711]":1716,"[unused1712]":1717,"[unused1713]":1718,"[unused1714]":1719,"[unused1715]":1720,"[unused1716]":1721,"[unused1717]":1722,"[unused1718]":1723,"[unused1719]":1724,"[unused1720]":1725,"[unused1721]":1726,"[unused1722]":1727,"[unused1723]":1728,"[unused1724]":1729,"[unused1725]":1730,"[unused1726]":1731,"[unused1727]":1732,"[unused1728]":1733,"[unused1729]":1734,"[unused1730]":1735,"[unused1731]":1736,"[unused1732]":1737,"[unused1733]":1738,"[unused1734]":1739,"[unused1735]":1740,"[unused1736]":1741,"[unused1737]":1742,"[unused1738]":1743,"[unused1739]":1744,"[unused1740]":1745,"[unused1741]":1746,"[unused1742]":1747,"[unused1743]":1748,"[unused1744]":1749,"[unused1745]":1750,"[unused1746]":1751,"[unused1747]":1752,"[unused1748]":1753,"[unused1749]":1754,"[unused1750]":1755,"[unused1751]":1756,"[unused1752]":1757,"[unused1753]":1758,"[unused1754]":1759,"[unused1755]":1760,"[unused1756]":1761,"[unused1757]":1762,"[unused1758]":1763,"[unused1759]":1764,"[unused1760]":1765,"[unused1761]":1766,"[unused1762]":1767,"[unused1763]":1768,"[unused1764]":1769,"[unused1765]":1770,"[unused1766]":1771,"[unused1767]":1772,"[unused1768]":1773,"[unused1769]":1774,"[unused1770]":1775,"[unused1771]":1776,"[unused1772]":1777,"[unused1773]":1778,"[unused1774]":1779,"[unused1775]":1780,"[unused1776]":1781,"[unused1777]":1782,"[unused1778]":1783,"[unused1779]":1784,"[unused1780]":1785,"[unused1781]":1786,"[unused1782]":1787,"[unused1783]":1788,"[unused1784]":1789,"[unused1785]":1790,"[unused1786]":1791,"[unused1787]":1792,"[unused1788]":1793,"[unused1789]":1794,"[unused1790]":1795,"[unused1791]":1796,"[unused1792]":1797,"[unused1793]":1798,"[unused1794]":1799,"[unused1795]":1800,"[unused1796]":1801,"[unused1797]":1802,"[unused1798]":1803,"[unused1799]":1804,"[unused1800]":1805,"[unused1801]":1806,"[unused1802]":1807,"[unused1803]":1808,"[unused1804]":1809,"[unused1805]":1810,"[unused1806]":1811,"[unused1807]":1812,"[unused1808]":1813,"[unused1809]":1814,"[unused1810]":1815,"[unused1811]":1816,"[unused1812]":1817,"[unused1813]":1818,"[unused1814]":1819,"[unused1815]":1820,"[unused1816]":1821,"[unused1817]":1822,"[unused1818]":1823,"[unused1819]":1824,"[unused1820]":1825,"[unused1821]":1826,"[unused1822]":1827,"[unused1823]":1828,"[unused1824]":1829,"[unused1825]":1830,"[unused1826]":1831,"[unused1827]":1832,"[unused1828]":1833,"[unused1829]":1834,"[unused1830]":1835,"[unused1831]":1836,"[unused1832]":1837,"[unused1833]":1838,"[unused1834]":1839,"[unused1835]":1840,"[unused1836]":1841,"[unused1837]":1842,"[unused1838]":1843,"[unused1839]":1844,"[unused1840]":1845,"[unused1841]":1846,"[unused1842]":1847,"[unused1843]":1848,"[unused1844]":1849,"[unused1845]":1850,"[unused1846]":1851,"[unused1847]":1852,"[unused1848]":1853,"[unused1849]":1854,"[unused1850]":1855,"[unused1851]":1856,"[unused1852]":1857,"[unused1853]":1858,"[unused1854]":1859,"[unused1855]":1860,"[unused1856]":1861,"[unused1857]":1862,"[unused1858]":1863,"[unused1859]":1864,"[unused1860]":1865,"[unused1861]":1866,"[unused1862]":1867,"[unused1863]":1868,"[unused1864]":1869,"[unused1865]":1870,"[unused1866]":1871,"[unused1867]":1872,"[unused1868]":1873,"[unused1869]":1874,"[unused1870]":1875,"[unused1871]":1876,"[unused1872]":1877,"[unused1873]":1878,"[unused1874]":1879,"[unused1875]":1880,"[unused1876]":1881,"[unused1877]":1882,"[unused1878]":1883,"[unused1879]":1884,"[unused1880]":1885,"[unused1881]":1886,"[unused1882]":1887,"[unused1883]":1888,"[unused1884]":1889,"[unused1885]":1890,"[unused1886]":1891,"[unused1887]":1892,"[unused1888]":1893,"[unused1889]":1894,"[unused1890]":1895,"[unused1891]":1896,"[unused1892]":1897,"[unused1893]":1898,"[unused1894]":1899,"[unused1895]":1900,"[unused1896]":1901,"[unused1897]":1902,"[unused1898]":1903,"[unused1899]":1904,"[unused1900]":1905,"[unused1901]":1906,"[unused1902]":1907,"[unused1903]":1908,"[unused1904]":1909,"[unused1905]":1910,"[unused1906]":1911,"[unused1907]":1912,"[unused1908]":1913,"[unused1909]":1914,"[unused1910]":1915,"[unused1911]":1916,"[unused1912]":1917,"[unused1913]":1918,"[unused1914]":1919,"[unused1915]":1920,"[unused1916]":1921,"[unused1917]":1922,"[unused1918]":1923,"[unused1919]":1924,"[unused1920]":1925,"[unused1921]":1926,"[unused1922]":1927,"[unused1923]":1928,"[unused1924]":1929,"[unused1925]":1930,"[unused1926]":1931,"[unused1927]":1932,"[unused1928]":1933,"[unused1929]":1934,"[unused1930]":1935,"[unused1931]":1936,"[unused1932]":1937,"[unused1933]":1938,"[unused1934]":1939,"[unused1935]":1940,"[unused1936]":1941,"[unused1937]":1942,"[unused1938]":1943,"[unused1939]":1944,"[unused1940]":1945,"[unused1941]":1946,"[unused1942]":1947,"[unused1943]":1948,"[unused1944]":1949,"[unused1945]":1950,"[unused1946]":1951,"[unused1947]":1952,"[unused1948]":1953,"[unused1949]":1954,"[unused1950]":1955,"[unused1951]":1956,"[unused1952]":1957,"[unused1953]":1958,"[unused1954]":1959,"[unused1955]":1960,"[unused1956]":1961,"[unused1957]":1962,"[unused1958]":1963,"[unused1959]":1964,"[unused1960]":1965,"[unused1961]":1966,"[unused1962]":1967,"[unused1963]":1968,"[unused1964]":1969,"[unused1965]":1970,"[unused1966]":1971,"[unused1967]":1972,"[unused1968]":1973,"[unused1969]":1974,"[unused1970]":1975,"[unused1971]":1976,"[unused1972]":1977,"[unused1973]":1978,"[unused1974]":1979,"[unused1975]":1980,"[unused1976]":1981,"[unused1977]":1982,"[unused1978]":1983,"[unused1979]":1984,"[unused1980]":1985,"[unused1981]":1986,"[unused1982]":1987,"[unused1983]":1988,"[unused1984]":1989,"[unused1985]":1990,"[unused1986]":1991,"[unused1987]":1992,"[unused1988]":1993,"[unused1989]":1994,"[unused1990]":1995,"[unused1991]":1996,"[unused1992]":1997,"[unused1993]":1998,"[unused1994]":1999,"[unused1995]":2000,"[unused1996]":2001,"[unused1997]":2002,"[unused1998]":2003,"[unused1999]":2004,"!":2005,"#":2006,"$":2007,"%":2008,"&":2009,"(":2010,")":2011,"*":2012,"+":2013,",":2014,"-":2015,".":2016,"/":2017,"0":2018,"1":2019,"2":2020,"3":2021,"4":2022,"5":2023,"6":2024,"7":2025,"8":2026,"9":2027,":":2028,";":2029,"<":2030,"=":2031,">":2032,"?":2033,"@":2034,"[":2035,"\\":2036,"]":2037,"^":2038,"_":2039,"`":2040,"a":2041,"b":2042,"c":2043,"d":2044,"e":2045,"f":2046,"g":2047,"h":2048,"i":2049,"j":2050,"k":2051,"l":2052,"m":2053,"n":2054,"o":2055,"p":2056,"q":2057,"r":2058,"s":2059,"t":2060,"u":2061,"v":2062,"w":2063,"x":2064,"y":2065,"z":2066,"{":2067,"|":2068,"}":2069,"~":2070,"∼":2071,"ㄱ":2072,"ㄲ":2073,"ㄳ":2074,"ㄴ":2075,"ㄵ":2076,"ㄶ":2077,"ㄷ":2078,"ㄸ":2079,"ㄹ":2080,"ㄺ":2081,"ㄻ":2082,"ㄼ":2083,"ㄽ":2084,"ㄾ":2085,"ㄿ":2086,"ㅀ":2087,"ㅁ":2088,"ㅂ":2089,"ㅃ":2090,"ㅄ":2091,"ㅅ":2092,"ㅆ":2093,"ㅇ":2094,"ㅈ":2095,"ㅉ":2096,"ㅊ":2097,"ㅋ":2098,"ㅌ":2099,"ㅍ":2100,"ㅎ":2101,"가":2102,"각":2103,"갂":2104,"갃":2105,"간":2106,"갅":2107,"갆":2108,"갇":2109,"갈":2110,"갉":2111,"갊":2112,"갋":2113,"갌":2114,"갍":2115,"갏":2116,"감":2117,"갑":2118,"값":2119,"갓":2120,"갔":2121,"강":2122,"갖":2123,"갗":2124,"갘":2125,"같":2126,"갚":2127,"갛":2128,"개":2129,"객":2130,"갞":2131,"갠":2132,"갡":2133,"갢":2134,"갣":2135,"갤":2136,"갬":2137,"갭":2138,"갯":2139,"갰":2140,"갱":2141,"갲":2142,"갳":2143,"갴":2144,"갵":2145,"갶":2146,"갷":2147,"갸":2148,"갹":2149,"갺":2150,"갼":2151,"갿":2152,"걀":2153,"걁":2154,"걈":2155,"걉":2156,"걋":2157,"걌":2158,"걍":2159,"걎":2160,"걏":2161,"걐":2162,"걑":2163,"걓":2164,"걔":2165,"걕":2166,"걖":2167,"걘":2168,"걜":2169,"걤":2170,"걨":2171,"걩":2172,"거":2173,"걱":2174,"걲":2175,"걳":2176,"건":2177,"걵":2178,"걶":2179,"걷":2180,"걸":2181,"걹":2182,"걺":2183,"걼":2184,"걾":2185,"걿":2186,"검":2187,"겁":2188,"겂":2189,"것":2190,"겄":2191,"겅":2192,"겆":2193,"겇":2194,"겈":2195,"겉":2196,"겊":2197,"겋":2198,"게":2199,"겍":2200,"겎":2201,"겏":2202,"겐":2203,"겒":2204,"겓":2205,"겔":2206,"겙":2207,"겚":2208,"겜":2209,"겝":2210,"겟":2211,"겠":2212,"겡":2213,"겢":2214,"겣":2215,"겤":2216,"겥":2217,"겦":2218,"겧":2219,"겨":2220,"격":2221,"겪":2222,"겫":2223,"견":2224,"겭":2225,"겮":2226,"겯":2227,"결":2228,"겱":2229,"겲":2230,"겳":2231,"겴":2232,"겵":2233,"겷":2234,"겸":2235,"겹":2236,"겺":2237,"겻":2238,"겼":2239,"경":2240,"겾":2241,"겿":2242,"곀":2243,"곁":2244,"곂":2245,"곃":2246,"계":2247,"곅":2248,"곈":2249,"곌":2250,"곔":2251,"곕":2252,"곗":2253,"곘":2254,"곙":2255,"곚":2256,"곜":2257,"곞":2258,"곟":2259,"고":2260,"곡":2261,"곢":2262,"곣":2263,"곤":2264,"곥":2265,"곦":2266,"곧":2267,"골":2268,"곩":2269,"곪":2270,"곫":2271,"곬":2272,"곮":2273,"곯":2274,"곰":2275,"곱":2276,"곲":2277,"곳":2278,"곴":2279,"공":2280,"곶":2281,"곷":2282,"곸":2283,"곹":2284,"곺":2285,"곻":2286,"과":2287,"곽":2288,"곾":2289,"관":2290,"괁":2291,"괂":2292,"괃":2293,"괄":2294,"괌":2295,"괍":2296,"괏":2297,"괐":2298,"광":2299,"괒":2300,"괓":2301,"괔":2302,"괕":2303,"괗":2304,"괘":2305,"괙":2306,"괜":2307,"괝":2308,"괞":2309,"괟":2310,"괠":2311,"괨":2312,"괩":2313,"괫":2314,"괬":2315,"괭":2316,"괮":2317,"괯":2318,"괰":2319,"괱":2320,"괴":2321,"괵":2322,"괸":2323,"괺":2324,"괻":2325,"괼":2326,"굄":2327,"굅":2328,"굇":2329,"굈":2330,"굉":2331,"굊":2332,"굌":2333,"굎":2334,"교":2335,"굑":2336,"굔":2337,"굗":2338,"굘":2339,"굚":2340,"굠":2341,"굡":2342,"굣":2343,"굤":2344,"굥":2345,"굦":2346,"굧":2347,"굨":2348,"굩":2349,"굪":2350,"굫":2351,"구":2352,"국":2353,"굮":2354,"굯":2355,"군":2356,"굲":2357,"굳":2358,"굴":2359,"굵":2360,"굶":2361,"굷":2362,"굸":2363,"굻":2364,"굼":2365,"굽":2366,"굾":2367,"굿":2368,"궀":2369,"궁":2370,"궂":2371,"궃":2372,"궄":2373,"궅":2374,"궆":2375,"궇":2376,"궈":2377,"궉":2378,"권":2379,"궏":2380,"궐":2381,"궘":2382,"궛":2383,"궜":2384,"궝":2385,"궞":2386,"궠":2387,"궤":2388,"궥":2389,"궨":2390,"궬":2391,"궭":2392,"궮":2393,"궴":2394,"궷":2395,"궸":2396,"궹":2397,"궼":2398,"귀":2399,"귁":2400,"귄":2401,"귈":2402,"귐":2403,"귑":2404,"귓":2405,"귔":2406,"귕":2407,"귖":2408,"귗":2409,"귘":2410,"귛":2411,"규":2412,"귝":2413,"균":2414,"귡":2415,"귢":2416,"귣":2417,"귤":2418,"귥":2419,"귬":2420,"귭":2421,"귯":2422,"귱":2423,"귲":2424,"귳":2425,"귴":2426,"귵":2427,"귶":2428,"귷":2429,"그":2430,"극":2431,"귺":2432,"귻":2433,"근":2434,"귽":2435,"귾":2436,"귿":2437,"글":2438,"긁":2439,"긂":2440,"긃":2441,"긄":2442,"긅":2443,"긇":2444,"금":2445,"급":2446,"긊":2447,"긋":2448,"긌":2449,"긍":2450,"긎":2451,"긏":2452,"긐":2453,"긑":2454,"긒":2455,"긓":2456,"긔":2457,"긕":2458,"긘":2459,"긛":2460,"긜":2461,"긤":2462,"긥":2463,"긧":2464,"긩":2465,"긪":2466,"긬":2467,"긯":2468,"기":2469,"긱":2470,"긲":2471,"긴":2472,"긵":2473,"긶":2474,"긷":2475,"길":2476,"긹":2477,"긺":2478,"긻":2479,"긼":2480,"긿":2481,"김":2482,"깁":2483,"깂":2484,"깃":2485,"깄":2486,"깅":2487,"깆":2488,"깇":2489,"깈":2490,"깉":2491,"깊":2492,"깋":2493,"까":2494,"깍":2495,"깎":2496,"깐":2497,"깒":2498,"깓":2499,"깔":2500,"깕":2501,"깖":2502,"깗":2503,"깛":2504,"깜":2505,"깝":2506,"깞":2507,"깟":2508,"깠":2509,"깡":2510,"깢":2511,"깣":2512,"깤":2513,"깥":2514,"깦":2515,"깧":2516,"깨":2517,"깩":2518,"깪":2519,"깬":2520,"깯":2521,"깰":2522,"깳":2523,"깵":2524,"깸":2525,"깹":2526,"깻":2527,"깼":2528,"깽":2529,"깾":2530,"꺀":2531,"꺂":2532,"꺄":2533,"꺅":2534,"꺆":2535,"꺈":2536,"꺉":2537,"꺊":2538,"꺋":2539,"꺌":2540,"꺍":2541,"꺎":2542,"꺏":2543,"꺑":2544,"꺒":2545,"꺓":2546,"꺔":2547,"꺕":2548,"꺖":2549,"꺗":2550,"꺘":2551,"꺙":2552,"꺚":2553,"꺛":2554,"꺜":2555,"꺝":2556,"꺟":2557,"꺠":2558,"꺡":2559,"꺢":2560,"꺤":2561,"꺨":2562,"꺰":2563,"꺳":2564,"꺴":2565,"꺵":2566,"꺼":2567,"꺽":2568,"꺾":2569,"껀":2570,"껃":2571,"껄":2572,"껌":2573,"껍":2574,"껏":2575,"껐":2576,"껑":2577,"껒":2578,"껓":2579,"껔":2580,"껕":2581,"껖":2582,"껗":2583,"께":2584,"껙":2585,"껜":2586,"껟":2587,"껠":2588,"껨":2589,"껩":2590,"껫":2591,"껬":2592,"껭":2593,"껰":2594,"껲":2595,"껳":2596,"껴":2597,"껵":2598,"껶":2599,"껸":2600,"껼":2601,"꼄":2602,"꼅":2603,"꼇":2604,"꼈":2605,"꼉":2606,"꼊":2607,"꼌":2608,"꼍":2609,"꼏":2610,"꼐":2611,"꼔":2612,"꼣":2613,"꼤":2614,"꼥":2615,"꼬":2616,"꼭":2617,"꼮":2618,"꼰":2619,"꼲":2620,"꼳":2621,"꼴":2622,"꼻":2623,"꼼":2624,"꼽":2625,"꼿":2626,"꽀":2627,"꽁":2628,"꽂":2629,"꽃":2630,"꽄":2631,"꽅":2632,"꽆":2633,"꽇":2634,"꽈":2635,"꽉":2636,"꽊":2637,"꽌":2638,"꽏":2639,"꽐":2640,"꽘":2641,"꽙":2642,"꽛":2643,"꽜":2644,"꽝":2645,"꽠":2646,"꽣":2647,"꽤":2648,"꽥":2649,"꽦":2650,"꽨":2651,"꽬":2652,"꽴":2653,"꽹":2654,"꾀":2655,"꾁":2656,"꾄":2657,"꾈":2658,"꾐":2659,"꾑":2660,"꾕":2661,"꾜":2662,"꾝":2663,"꾤":2664,"꾩":2665,"꾬":2666,"꾭":2667,"꾱":2668,"꾲":2669,"꾳":2670,"꾸":2671,"꾹":2672,"꾺":2673,"꾼":2674,"꾾":2675,"꾿":2676,"꿀":2677,"꿁":2678,"꿂":2679,"꿃":2680,"꿅":2681,"꿇":2682,"꿈":2683,"꿉":2684,"꿋":2685,"꿌":2686,"꿍":2687,"꿎":2688,"꿏":2689,"꿐":2690,"꿑":2691,"꿒":2692,"꿓":2693,"꿔":2694,"꿕":2695,"꿘":2696,"꿜":2697,"꿤":2698,"꿥":2699,"꿧":2700,"꿨":2701,"꿩":2702,"꿯":2703,"꿰":2704,"꿱":2705,"꿴":2706,"꿸":2707,"꿹":2708,"꿻":2709,"뀀":2710,"뀁":2711,"뀄":2712,"뀅":2713,"뀌":2714,"뀍":2715,"뀐":2716,"뀔":2717,"뀜":2718,"뀝":2719,"뀟":2720,"뀠":2721,"뀡":2722,"뀤":2723,"뀨":2724,"뀩":2725,"뀪":2726,"뀬":2727,"뀯":2728,"뀰":2729,"뀸":2730,"뀹":2731,"뀻":2732,"뀼":2733,"뀽":2734,"끁":2735,"끄":2736,"끅":2737,"끆":2738,"끈":2739,"끉":2740,"끊":2741,"끋":2742,"끌":2743,"끍":2744,"끎":2745,"끏":2746,"끐":2747,"끓":2748,"끔":2749,"끕":2750,"끗":2751,"끘":2752,"끙":2753,"끚":2754,"끛":2755,"끜":2756,"끝":2757,"끞":2758,"끟":2759,"끠":2760,"끡":2761,"끤":2762,"끨":2763,"끰":2764,"끵":2765,"끼":2766,"끽":2767,"끾":2768,"낀":2769,"낃":2770,"낄":2771,"낈":2772,"낋":2773,"낌":2774,"낍":2775,"낏":2776,"낐":2777,"낑":2778,"낒":2779,"낔":2780,"낕":2781,"낗":2782,"나":2783,"낙":2784,"낚":2785,"낛":2786,"난":2787,"낝":2788,"낞":2789,"낟":2790,"날":2791,"낡":2792,"낢":2793,"낣":2794,"낤":2795,"낧":2796,"남":2797,"납":2798,"낪":2799,"낫":2800,"났":2801,"낭":2802,"낮":2803,"낯":2804,"낰":2805,"낱":2806,"낲":2807,"낳":2808,"내":2809,"낵":2810,"낶":2811,"낸":2812,"낻":2813,"낼":2814,"냄":2815,"냅":2816,"냇":2817,"냈":2818,"냉":2819,"냊":2820,"냋":2821,"냌":2822,"냍":2823,"냎":2824,"냏":2825,"냐":2826,"냑":2827,"냒":2828,"냔":2829,"냕":2830,"냗":2831,"냘":2832,"냛":2833,"냠":2834,"냡":2835,"냣":2836,"냤":2837,"냥":2838,"냦":2839,"냧":2840,"냨":2841,"냩":2842,"냪":2843,"냫":2844,"냬":2845,"냴":2846,"냼":2847,"냿":2848,"넀":2849,"넁":2850,"넄":2851,"너":2852,"넉":2853,"넊":2854,"넋":2855,"넌":2856,"넎":2857,"넏":2858,"널":2859,"넑":2860,"넒":2861,"넓":2862,"넔":2863,"넖":2864,"넗":2865,"넘":2866,"넙":2867,"넚":2868,"넛":2869,"넜":2870,"넝":2871,"넞":2872,"넟":2873,"넠":2874,"넡":2875,"넢":2876,"넣":2877,"네":2878,"넥":2879,"넨":2880,"넫":2881,"넬":2882,"넴":2883,"넵":2884,"넷":2885,"넸":2886,"넹":2887,"넺":2888,"넻":2889,"넼":2890,"넽":2891,"넾":2892,"넿":2893,"녀":2894,"녁":2895,"녂":2896,"녃":2897,"년":2898,"녅":2899,"녆":2900,"녇":2901,"녈":2902,"녊":2903,"녋":2904,"념":2905,"녑":2906,"녓":2907,"녔":2908,"녕":2909,"녖":2910,"녗":2911,"녘":2912,"녙":2913,"녚":2914,"녛":2915,"녜":2916,"녝":2917,"녠":2918,"녤":2919,"녬":2920,"녭":2921,"녯":2922,"녰":2923,"녱":2924,"녴":2925,"노":2926,"녹":2927,"녺":2928,"녻":2929,"논":2930,"녾":2931,"녿":2932,"놀":2933,"놁":2934,"놂":2935,"놃":2936,"놄":2937,"놇":2938,"놈":2939,"놉":2940,"놊":2941,"놋":2942,"놌":2943,"농":2944,"놎":2945,"놏":2946,"놐":2947,"놑":2948,"높":2949,"놓":2950,"놔":2951,"놕":2952,"놘":2953,"놜":2954,"놤":2955,"놥":2956,"놧":2957,"놨":2958,"놩":2959,"놬":2960,"놯":2961,"놰":2962,"뇄":2963,"뇆":2964,"뇌":2965,"뇐":2966,"뇔":2967,"뇜":2968,"뇝":2969,"뇟":2970,"뇠":2971,"뇡":2972,"뇨":2973,"뇩":2974,"뇬":2975,"뇮":2976,"뇯":2977,"뇰":2978,"뇸":2979,"뇹":2980,"뇻":2981,"뇽":2982,"뇾":2983,"눀":2984,"눁":2985,"눂":2986,"눃":2987,"누":2988,"눅":2989,"눈":2990,"눊":2991,"눋":2992,"눌":2993,"눍":2994,"눓":2995,"눔":2996,"눕":2997,"눗":2998,"눙":2999,"눚":3000,"눛":3001,"눜":3002,"눝":3003,"눞":3004,"눟":3005,"눠":3006,"눤":3007,"눨":3008,"눰":3009,"눱":3010,"눳":3011,"눴":3012,"눵":3013,"눹":3014,"눼":3015,"뉀":3016,"뉄":3017,"뉌":3018,"뉍":3019,"뉏":3020,"뉑":3021,"뉔":3022,"뉘":3023,"뉙":3024,"뉜":3025,"뉠":3026,"뉨":3027,"뉩":3028,"뉫":3029,"뉬":3030,"뉭":3031,"뉰":3032,"뉴":3033,"뉵":3034,"뉸":3035,"뉺":3036,"뉻":3037,"뉼":3038,"늄":3039,"늅":3040,"늇":3041,"늉":3042,"늊":3043,"늌":3044,"늍":3045,"늎":3046,"늏":3047,"느":3048,"늑":3049,"늒":3050,"늓":3051,"는":3052,"늕":3053,"늖":3054,"늗":3055,"늘":3056,"늙":3057,"늚":3058,"늛":3059,"늜":3060,"늟":3061,"늠":3062,"늡":3063,"늣":3064,"늤":3065,"능":3066,"늦":3067,"늧":3068,"늨":3069,"늩":3070,"늪":3071,"늫":3072,"늬":3073,"늭":3074,"늮":3075,"늰":3076,"늳":3077,"늴":3078,"늼":3079,"늽":3080,"늿":3081,"닁":3082,"닂":3083,"닄":3084,"닇":3085,"니":3086,"닉":3087,"닊":3088,"닋":3089,"닌":3090,"닍":3091,"닎":3092,"닏":3093,"닐":3094,"닑":3095,"닒":3096,"닗":3097,"님":3098,"닙":3099,"닚":3100,"닛":3101,"닜":3102,"닝":3103,"닞":3104,"닟":3105,"닠":3106,"닡":3107,"닢":3108,"닣":3109,"다":3110,"닥":3111,"닦":3112,"닧":3113,"단":3114,"닩":3115,"닪":3116,"닫":3117,"달":3118,"닭":3119,"닮":3120,"닯":3121,"닰":3122,"닲":3123,"닳":3124,"담":3125,"답":3126,"닶":3127,"닷":3128,"닸":3129,"당":3130,"닺":3131,"닻":3132,"닼":3133,"닽":3134,"닾":3135,"닿":3136,"대":3137,"댁":3138,"댄":3139,"댇":3140,"댈":3141,"댉":3142,"댐":3143,"댑":3144,"댓":3145,"댔":3146,"댕":3147,"댖":3148,"댗":3149,"댘":3150,"댙":3151,"댚":3152,"댛":3153,"댜":3154,"댝":3155,"댞":3156,"댠":3157,"댣":3158,"댤":3159,"댥":3160,"댧":3161,"댬":3162,"댭":3163,"댯":3164,"댰":3165,"댱":3166,"댲":3167,"댴":3168,"댵":3169,"댷":3170,"댸":3171,"댼":3172,"덈":3173,"덍":3174,"더":3175,"덕":3176,"덖":3177,"덗":3178,"던":3179,"덙":3180,"덚":3181,"덛":3182,"덜":3183,"덝":3184,"덞":3185,"덟":3186,"덢":3187,"덣":3188,"덤":3189,"덥":3190,"덦":3191,"덧":3192,"덨":3193,"덩":3194,"덪":3195,"덫":3196,"덬":3197,"덭":3198,"덮":3199,"덯":3200,"데":3201,"덱":3202,"덴":3203,"덷":3204,"델":3205,"뎀":3206,"뎁":3207,"뎃":3208,"뎄":3209,"뎅":3210,"뎆":3211,"뎇":3212,"뎈":3213,"뎉":3214,"뎊":3215,"뎋":3216,"뎌":3217,"뎍":3218,"뎐":3219,"뎓":3220,"뎔":3221,"뎜":3222,"뎝":3223,"뎟":3224,"뎠":3225,"뎡":3226,"뎢":3227,"뎤":3228,"뎥":3229,"뎦":3230,"뎧":3231,"뎨":3232,"뎩":3233,"뎬":3234,"뎰":3235,"뎸":3236,"뎽":3237,"도":3238,"독":3239,"돆":3240,"돇":3241,"돈":3242,"돉":3243,"돊":3244,"돋":3245,"돌":3246,"돍":3247,"돎":3248,"돏":3249,"돐":3250,"돒":3251,"돓":3252,"돔":3253,"돕":3254,"돖":3255,"돗":3256,"돘":3257,"동":3258,"돚":3259,"돛":3260,"돜":3261,"돝":3262,"돞":3263,"돟":3264,"돠":3265,"돡":3266,"돤":3267,"돨":3268,"돩":3269,"돰":3270,"돱":3271,"돳":3272,"돴":3273,"돵":3274,"돸":3275,"돻":3276,"돼":3277,"돽":3278,"돾":3279,"됀":3280,"됄":3281,"됌":3282,"됍":3283,"됏":3284,"됐":3285,"됑":3286,"됒":3287,"됔":3288,"됗":3289,"되":3290,"됙":3291,"된":3292,"됝":3293,"됟":3294,"될":3295,"됡":3296,"됢":3297,"됨":3298,"됩":3299,"됫":3300,"됬":3301,"됭":3302,"됮":3303,"됰":3304,"됳":3305,"됴":3306,"됵":3307,"됸":3308,"됻":3309,"됼":3310,"둁":3311,"둄":3312,"둅":3313,"둇":3314,"둉":3315,"둊":3316,"둌":3317,"둏":3318,"두":3319,"둑":3320,"둒":3321,"둓":3322,"둔":3323,"둗":3324,"둘":3325,"둙":3326,"둚":3327,"둟":3328,"둠":3329,"둡":3330,"둣":3331,"둤":3332,"둥":3333,"둦":3334,"둧":3335,"둨":3336,"둩":3337,"둪":3338,"둫":3339,"둬":3340,"둭":3341,"둮":3342,"둯":3343,"둰":3344,"둴":3345,"둵":3346,"둻":3347,"둼":3348,"둽":3349,"둿":3350,"뒀":3351,"뒁":3352,"뒇":3353,"뒈":3354,"뒌":3355,"뒐":3356,"뒑":3357,"뒘":3358,"뒙":3359,"뒛":3360,"뒝":3361,"뒠":3362,"뒤":3363,"뒥":3364,"뒨":3365,"뒫":3366,"뒬":3367,"뒴":3368,"뒵":3369,"뒷":3370,"뒸":3371,"뒹":3372,"뒺":3373,"뒾":3374,"듀":3375,"듁":3376,"듄":3377,"듇":3378,"듈":3379,"듐":3380,"듑":3381,"듓":3382,"듕":3383,"듖":3384,"듘":3385,"듚":3386,"듛":3387,"드":3388,"득":3389,"듞":3390,"듟":3391,"든":3392,"듡":3393,"듢":3394,"듣":3395,"들":3396,"듥":3397,"듦":3398,"듧":3399,"듨":3400,"듩":3401,"듪":3402,"듫":3403,"듬":3404,"듭":3405,"듯":3406,"듰":3407,"등":3408,"듲":3409,"듳":3410,"듴":3411,"듵":3412,"듶":3413,"듷":3414,"듸":3415,"듹":3416,"듼":3417,"듿":3418,"딀":3419,"딈":3420,"딉":3421,"딋":3422,"딍":3423,"디":3424,"딕":3425,"딖":3426,"딘":3427,"딙":3428,"딛":3429,"딜":3430,"딝":3431,"딤":3432,"딥":3433,"딧":3434,"딨":3435,"딩":3436,"딪":3437,"딫":3438,"딬":3439,"딭":3440,"딮":3441,"딯":3442,"따":3443,"딱":3444,"딲":3445,"딳":3446,"딴":3447,"딷":3448,"딸":3449,"딹":3450,"딺":3451,"딻":3452,"딿":3453,"땀":3454,"땁":3455,"땃":3456,"땄":3457,"땅":3458,"땆":3459,"땈":3460,"땉":3461,"땋":3462,"때":3463,"땍":3464,"땎":3465,"땐":3466,"땓":3467,"땔":3468,"땜":3469,"땝":3470,"땟":3471,"땠":3472,"땡":3473,"땢":3474,"땣":3475,"땤":3476,"땥":3477,"땧":3478,"땨":3479,"땩":3480,"땬":3481,"땰":3482,"땸":3483,"땹":3484,"땽":3485,"떀":3486,"떃":3487,"떄":3488,"떅":3489,"떈":3490,"떌":3491,"떔":3492,"떗":3493,"떘":3494,"떙":3495,"떠":3496,"떡":3497,"떢":3498,"떤":3499,"떥":3500,"떦":3501,"떧":3502,"떨":3503,"떪":3504,"떫":3505,"떮":3506,"떯":3507,"떰":3508,"떱":3509,"떳":3510,"떴":3511,"떵":3512,"떸":3513,"떺":3514,"떻":3515,"떼":3516,"떽":3517,"떾":3518,"뗀":3519,"뗄":3520,"뗌":3521,"뗍":3522,"뗏":3523,"뗐":3524,"뗑":3525,"뗔":3526,"뗗":3527,"뗘":3528,"뗙":3529,"뗜":3530,"뗠":3531,"뗨":3532,"뗫":3533,"뗬":3534,"뗭":3535,"뗳":3536,"뗴":3537,"뗵":3538,"뗶":3539,"뗸":3540,"뗼":3541,"똄":3542,"똇":3543,"똈":3544,"똉":3545,"똏":3546,"또":3547,"똑":3548,"똒":3549,"똔":3550,"똗":3551,"똘":3552,"똙":3553,"똟":3554,"똠":3555,"똡":3556,"똣":3557,"똥":3558,"똦":3559,"똧":3560,"똨":3561,"똫":3562,"똬":3563,"똭":3564,"똮":3565,"똯":3566,"똰":3567,"똳":3568,"똴":3569,"똵":3570,"똷":3571,"똻":3572,"똼":3573,"똽":3574,"똿":3575,"뙀":3576,"뙁":3577,"뙄":3578,"뙇":3579,"뙈":3580,"뙉":3581,"뙑":3582,"뙜":3583,"뙝":3584,"뙡":3585,"뙤":3586,"뙥":3587,"뙨":3588,"뙬":3589,"뙹":3590,"뚀":3591,"뚁":3592,"뚄":3593,"뚊":3594,"뚑":3595,"뚕":3596,"뚛":3597,"뚜":3598,"뚝":3599,"뚞":3600,"뚠":3601,"뚢":3602,"뚣":3603,"뚤":3604,"뚥":3605,"뚦":3606,"뚧":3607,"뚨":3608,"뚫":3609,"뚬":3610,"뚭":3611,"뚯":3612,"뚱":3613,"뚴":3614,"뚷":3615,"뚸":3616,"뚹":3617,"뛀":3618,"뛌":3619,"뛔":3620,"뛕":3621,"뛝":3622,"뛟":3623,"뛬":3624,"뛰":3625,"뛱":3626,"뛴":3627,"뛷":3628,"뛸":3629,"뜀":3630,"뜁":3631,"뜃":3632,"뜅":3633,"뜌":3634,"뜍":3635,"뜐":3636,"뜔":3637,"뜛":3638,"뜜":3639,"뜝":3640,"뜟":3641,"뜡":3642,"뜨":3643,"뜩":3644,"뜪":3645,"뜬":3646,"뜮":3647,"뜯":3648,"뜰":3649,"뜲":3650,"뜳":3651,"뜷":3652,"뜸":3653,"뜹":3654,"뜻":3655,"뜼":3656,"뜽":3657,"뜾":3658,"뜿":3659,"띀":3660,"띁":3661,"띃":3662,"띄":3663,"띅":3664,"띈":3665,"띌":3666,"띔":3667,"띕":3668,"띙":3669,"띠":3670,"띡":3671,"띤":3672,"띧":3673,"띨":3674,"띰":3675,"띱":3676,"띳":3677,"띵":3678,"띸":3679,"띻":3680,"라":3681,"락":3682,"띾":3683,"띿":3684,"란":3685,"랁":3686,"랂":3687,"랃":3688,"랄":3689,"랅":3690,"랆":3691,"랇":3692,"랋":3693,"람":3694,"랍":3695,"랏":3696,"랐":3697,"랑":3698,"랒":3699,"랓":3700,"랔":3701,"랕":3702,"랖":3703,"랗":3704,"래":3705,"랙":3706,"랚":3707,"랜":3708,"랝":3709,"랟":3710,"랠":3711,"램":3712,"랩":3713,"랫":3714,"랬":3715,"랭":3716,"랮":3717,"랯":3718,"랰":3719,"랱":3720,"랲":3721,"랳":3722,"랴":3723,"략":3724,"랸":3725,"랻":3726,"랼":3727,"럂":3728,"럄":3729,"럅":3730,"럆":3731,"럇":3732,"럈":3733,"량":3734,"럊":3735,"럋":3736,"럌":3737,"럍":3738,"럏":3739,"럐":3740,"럑":3741,"럔":3742,"럕":3743,"럖":3744,"럗":3745,"럙":3746,"럠":3747,"럣":3748,"럤":3749,"럥":3750,"러":3751,"럭":3752,"럮":3753,"럯":3754,"런":3755,"럱":3756,"럲":3757,"럳":3758,"럴":3759,"럵":3760,"럶":3761,"럷":3762,"럸":3763,"럻":3764,"럼":3765,"럽":3766,"럾":3767,"럿":3768,"렀":3769,"렁":3770,"렂":3771,"렃":3772,"렄":3773,"렅":3774,"렆":3775,"렇":3776,"레":3777,"렉":3778,"렊":3779,"렋":3780,"렌":3781,"렍":3782,"렏":3783,"렐":3784,"렘":3785,"렙":3786,"렛":3787,"렜":3788,"렝":3789,"렞":3790,"렟":3791,"렠":3792,"렡":3793,"렢":3794,"렣":3795,"려":3796,"력":3797,"렦":3798,"렧":3799,"련":3800,"렪":3801,"렫":3802,"렬":3803,"렮":3804,"렳":3805,"렴":3806,"렵":3807,"렶":3808,"렷":3809,"렸":3810,"령":3811,"렺":3812,"렻":3813,"렼":3814,"렽":3815,"렾":3816,"렿":3817,"례":3818,"롁":3819,"롄":3820,"롈":3821,"롐":3822,"롑":3823,"롓":3824,"롔":3825,"롕":3826,"롘":3827,"로":3828,"록":3829,"롞":3830,"롟":3831,"론":3832,"롢":3833,"롣":3834,"롤":3835,"롥":3836,"롫":3837,"롬":3838,"롭":3839,"롮":3840,"롯":3841,"롰":3842,"롱":3843,"롲":3844,"롳":3845,"롴":3846,"롵":3847,"롶":3848,"롷":3849,"롸":3850,"롹":3851,"롼":3852,"뢀":3853,"뢈":3854,"뢉":3855,"뢋":3856,"뢌":3857,"뢍":3858,"뢐":3859,"뢓":3860,"뢔":3861,"뢕":3862,"뢘":3863,"뢤":3864,"뢥":3865,"뢧":3866,"뢨":3867,"뢩":3868,"뢰":3869,"뢱":3870,"뢳":3871,"뢴":3872,"뢸":3873,"룀":3874,"룁":3875,"룃":3876,"룄":3877,"룅":3878,"룈":3879,"료":3880,"룍":3881,"룐":3882,"룓":3883,"룔":3884,"룜":3885,"룝":3886,"룟":3887,"룠":3888,"룡":3889,"룢":3890,"룣":3891,"룤":3892,"룥":3893,"룦":3894,"룧":3895,"루":3896,"룩":3897,"룪":3898,"룬":3899,"룯":3900,"룰":3901,"룱":3902,"룸":3903,"룹":3904,"룻":3905,"룽":3906,"룾":3907,"룿":3908,"뤀":3909,"뤁":3910,"뤂":3911,"뤃":3912,"뤄":3913,"뤅":3914,"뤈":3915,"뤌":3916,"뤔":3917,"뤕":3918,"뤗":3919,"뤘":3920,"뤙":3921,"뤟":3922,"뤠":3923,"뤡":3924,"뤤":3925,"뤧":3926,"뤨":3927,"뤰":3928,"뤱":3929,"뤳":3930,"뤵":3931,"뤸":3932,"뤼":3933,"뤽":3934,"륀":3935,"륄":3936,"륆":3937,"륌":3938,"륍":3939,"륏":3940,"륐":3941,"륑":3942,"류":3943,"륙":3944,"륜":3945,"륟":3946,"률":3947,"륨":3948,"륩":3949,"륫":3950,"륭":3951,"륮":3952,"륯":3953,"륰":3954,"륱":3955,"륲":3956,"륳":3957,"르":3958,"륵":3959,"륶":3960,"륷":3961,"른":3962,"륹":3963,"륺":3964,"륻":3965,"를":3966,"륽":3967,"륾":3968,"륿":3969,"릀":3970,"릁":3971,"릂":3972,"릃":3973,"름":3974,"릅":3975,"릇":3976,"릈":3977,"릉":3978,"릊":3979,"릋":3980,"릌":3981,"릍":3982,"릎":3983,"릏":3984,"릐":3985,"릑":3986,"릔":3987,"릘":3988,"릠":3989,"릡":3990,"릣":3991,"릥":3992,"릫":3993,"리":3994,"릭":3995,"릮":3996,"릯":3997,"린":3998,"릱":3999,"릲":4000,"릳":4001,"릴":4002,"릵":4003,"릶":4004,"릷":4005,"릸":4006,"림":4007,"립":4008,"릾":4009,"릿":4010,"맀":4011,"링":4012,"맂":4013,"맃":4014,"맄":4015,"맅":4016,"맆":4017,"맇":4018,"마":4019,"막":4020,"맊":4021,"맋":4022,"만":4023,"맍":4024,"많":4025,"맏":4026,"말":4027,"맑":4028,"맒":4029,"맓":4030,"맔":4031,"맕":4032,"맖":4033,"맗":4034,"맘":4035,"맙":4036,"맚":4037,"맛":4038,"맜":4039,"망":4040,"맞":4041,"맟":4042,"맠":4043,"맡":4044,"맢":4045,"맣":4046,"매":4047,"맥":4048,"맦":4049,"맧":4050,"맨":4051,"맩":4052,"맪":4053,"맫":4054,"맬":4055,"맴":4056,"맵":4057,"맷":4058,"맸":4059,"맹":4060,"맺":4061,"맻":4062,"맼":4063,"맽":4064,"맾":4065,"맿":4066,"먀":4067,"먁":4068,"먄":4069,"먆":4070,"먇":4071,"먈":4072,"먊":4073,"먋":4074,"먐":4075,"먑":4076,"먓":4077,"먕":4078,"먖":4079,"먗":4080,"먘":4081,"먙":4082,"먛":4083,"먜":4084,"먝":4085,"먠":4086,"먤":4087,"먱":4088,"머":4089,"먹":4090,"먺":4091,"먻":4092,"먼":4093,"먽":4094,"먾":4095,"먿":4096,"멀":4097,"멁":4098,"멂":4099,"멃":4100,"멅":4101,"멈":4102,"멉":4103,"멊":4104,"멋":4105,"멌":4106,"멍":4107,"멎":4108,"멏":4109,"멐":4110,"멑":4111,"멒":4112,"멓":4113,"메":4114,"멕":4115,"멘":4116,"멛":4117,"멜":4118,"멝":4119,"멤":4120,"멥":4121,"멧":4122,"멨":4123,"멩":4124,"멪":4125,"멫":4126,"멬":4127,"멭":4128,"멮":4129,"멯":4130,"며":4131,"멱":4132,"멲":4133,"면":4134,"멵":4135,"멶":4136,"멷":4137,"멸":4138,"몀":4139,"몁":4140,"몃":4141,"몄":4142,"명":4143,"몆":4144,"몇":4145,"몈":4146,"몉":4147,"몊":4148,"몋":4149,"몌":4150,"몐":4151,"몔":4152,"몟":4153,"몡":4154,"몣":4155,"모":4156,"목":4157,"몪":4158,"몫":4159,"몬":4160,"몮":4161,"몯":4162,"몰":4163,"몱":4164,"몲":4165,"몴":4166,"몸":4167,"몹":4168,"못":4169,"몼":4170,"몽":4171,"몾":4172,"몿":4173,"뫀":4174,"뫁":4175,"뫂":4176,"뫃":4177,"뫄":4178,"뫅":4179,"뫈":4180,"뫌":4181,"뫔":4182,"뫕":4183,"뫗":4184,"뫘":4185,"뫙":4186,"뫚":4187,"뫜":4188,"뫝":4189,"뫟":4190,"뫠":4191,"뫤":4192,"뫰":4193,"뫴":4194,"뫼":4195,"뫽":4196,"묀":4197,"묄":4198,"묌":4199,"묍":4200,"묏":4201,"묑":4202,"묘":4203,"묙":4204,"묜":4205,"묠":4206,"묨":4207,"묩":4208,"묫":4209,"묭":4210,"묮":4211,"묯":4212,"묰":4213,"묳":4214,"무":4215,"묵":4216,"묶":4217,"묷":4218,"문":4219,"묹":4220,"묺":4221,"묻":4222,"물":4223,"묽":4224,"묾":4225,"묿":4226,"뭀":4227,"뭁":4228,"뭂":4229,"뭃":4230,"뭄":4231,"뭅":4232,"뭇":4233,"뭈":4234,"뭉":4235,"뭊":4236,"뭋":4237,"뭌":4238,"뭍":4239,"뭎":4240,"뭏":4241,"뭐":4242,"뭑":4243,"뭓":4244,"뭔":4245,"뭕":4246,"뭗":4247,"뭘":4248,"뭠":4249,"뭡":4250,"뭣":4251,"뭤":4252,"뭥":4253,"뭦":4254,"뭨":4255,"뭩":4256,"뭪":4257,"뭫":4258,"뭬":4259,"뭭":4260,"뭰":4261,"뭴":4262,"뭼":4263,"뮁":4264,"뮈":4265,"뮉":4266,"뮌":4267,"뮐":4268,"뮘":4269,"뮙":4270,"뮛":4271,"뮝":4272,"뮤":4273,"뮥":4274,"뮦":4275,"뮨":4276,"뮫":4277,"뮬":4278,"뮭":4279,"뮴":4280,"뮵":4281,"뮷":4282,"뮹":4283,"뮺":4284,"뮻":4285,"뮼":4286,"뮽":4287,"뮾":4288,"뮿":4289,"므":4290,"믁":4291,"믂":4292,"믄":4293,"믅":4294,"믆":4295,"믇":4296,"믈":4297,"믉":4298,"믌":4299,"믐":4300,"믑":4301,"믓":4302,"믕":4303,"믖":4304,"믗":4305,"믘":4306,"믙":4307,"믚":4308,"믛":4309,"믜":4310,"믝":4311,"믠":4312,"믤":4313,"믬":4314,"믯":4315,"믱":4316,"미":4317,"믹":4318,"믺":4319,"믻":4320,"민":4321,"믽":4322,"믾":4323,"믿":4324,"밀":4325,"밁":4326,"밂":4327,"밃":4328,"밄":4329,"밅":4330,"밆":4331,"밇":4332,"밈":4333,"밉":4334,"밊":4335,"밋":4336,"밌":4337,"밍":4338,"밎":4339,"및":4340,"밐":4341,"밑":4342,"밒":4343,"밓":4344,"바":4345,"박":4346,"밖":4347,"밗":4348,"반":4349,"밙":4350,"밚":4351,"받":4352,"발":4353,"밝":4354,"밞":4355,"밟":4356,"밠":4357,"밡":4358,"밢":4359,"밣":4360,"밤":4361,"밥":4362,"밦":4363,"밧":4364,"밨":4365,"방":4366,"밪":4367,"밫":4368,"밬":4369,"밭":4370,"밮":4371,"밯":4372,"배":4373,"백":4374,"밲":4375,"밳":4376,"밴":4377,"밷":4378,"밸":4379,"밹":4380,"뱀":4381,"뱁":4382,"뱃":4383,"뱄":4384,"뱅":4385,"뱆":4386,"뱇":4387,"뱈":4388,"뱉":4389,"뱊":4390,"뱋":4391,"뱌":4392,"뱍":4393,"뱎":4394,"뱐":4395,"뱓":4396,"뱔":4397,"뱕":4398,"뱜":4399,"뱝":4400,"뱟":4401,"뱡":4402,"뱢":4403,"뱣":4404,"뱥":4405,"뱧":4406,"뱨":4407,"뱩":4408,"뱰":4409,"뱽":4410,"버":4411,"벅":4412,"벆":4413,"번":4414,"벉":4415,"벊":4416,"벋":4417,"벌":4418,"벍":4419,"벎":4420,"벏":4421,"벐":4422,"벓":4423,"범":4424,"법":4425,"벖":4426,"벗":4427,"벘":4428,"벙":4429,"벚":4430,"벛":4431,"벜":4432,"벝":4433,"벞":4434,"벟":4435,"베":4436,"벡":4437,"벤":4438,"벦":4439,"벧":4440,"벨":4441,"벩":4442,"벫":4443,"벭":4444,"벰":4445,"벱":4446,"벳":4447,"벴":4448,"벵":4449,"벶":4450,"벷":4451,"벸":4452,"벹":4453,"벺":4454,"벻":4455,"벼":4456,"벽":4457,"벾":4458,"변":4459,"볂":4460,"볃":4461,"별":4462,"볅":4463,"볆":4464,"볇":4465,"볈":4466,"볊":4467,"볋":4468,"볌":4469,"볍":4470,"볏":4471,"볐":4472,"병":4473,"볒":4474,"볓":4475,"볔":4476,"볕":4477,"볖":4478,"볗":4479,"볘":4480,"볜":4481,"볠":4482,"볫":4483,"볭":4484,"보":4485,"복":4486,"볶":4487,"볷":4488,"본":4489,"볹":4490,"볻":4491,"볼":4492,"볽":4493,"볾":4494,"볿":4495,"봀":4496,"봁":4497,"봂":4498,"봃":4499,"봄":4500,"봅":4501,"봆":4502,"봇":4503,"봈":4504,"봉":4505,"봊":4506,"봋":4507,"봌":4508,"봍":4509,"봎":4510,"봏":4511,"봐":4512,"봑":4513,"봒":4514,"봔":4515,"봗":4516,"봘":4517,"봙":4518,"봠":4519,"봡":4520,"봣":4521,"봤":4522,"봥":4523,"봦":4524,"봨":4525,"봫":4526,"봬":4527,"봭":4528,"봰":4529,"봴":4530,"봵":4531,"봽":4532,"봿":4533,"뵀":4534,"뵁":4535,"뵈":4536,"뵉":4537,"뵌":4538,"뵏":4539,"뵐":4540,"뵘":4541,"뵙":4542,"뵛":4543,"뵜":4544,"뵝":4545,"뵞":4546,"뵤":4547,"뵥":4548,"뵨":4549,"뵬":4550,"뵴":4551,"뵵":4552,"뵷":4553,"뵹":4554,"뵺":4555,"부":4556,"북":4557,"붂":4558,"분":4559,"붅":4560,"붆":4561,"붇":4562,"불":4563,"붉":4564,"붊":4565,"붋":4566,"붌":4567,"붍":4568,"붎":4569,"붏":4570,"붐":4571,"붑":4572,"붓":4573,"붔":4574,"붕":4575,"붖":4576,"붗":4577,"붘":4578,"붙":4579,"붚":4580,"붛":4581,"붜":4582,"붝":4583,"붠":4584,"붤":4585,"붥":4586,"붬":4587,"붭":4588,"붯":4589,"붰":4590,"붱":4591,"붴":4592,"붵":4593,"붸":4594,"붹":4595,"붼":4596,"뷀":4597,"뷁":4598,"뷃":4599,"뷈":4600,"뷉":4601,"뷋":4602,"뷍":4603,"뷔":4604,"뷕":4605,"뷘":4606,"뷜":4607,"뷤":4608,"뷥":4609,"뷧":4610,"뷩":4611,"뷮":4612,"뷰":4613,"뷱":4614,"뷴":4615,"뷷":4616,"뷸":4617,"뷹":4618,"븀":4619,"븁":4620,"븃":4621,"븅":4622,"븈":4623,"븉":4624,"븋":4625,"브":4626,"븍":4627,"븐":4628,"븓":4629,"블":4630,"븕":4631,"븖":4632,"븗":4633,"븘":4634,"븜":4635,"븝":4636,"븞":4637,"븟":4638,"븠":4639,"븡":4640,"븢":4641,"븣":4642,"븤":4643,"븥":4644,"븦":4645,"븧":4646,"븨":4647,"븩":4648,"븬":4649,"븯":4650,"븰":4651,"븸":4652,"븹":4653,"븻":4654,"븽":4655,"븾":4656,"빂":4657,"비":4658,"빅":4659,"빆":4660,"빇":4661,"빈":4662,"빉":4663,"빋":4664,"빌":4665,"빍":4666,"빎":4667,"빔":4668,"빕":4669,"빗":4670,"빘":4671,"빙":4672,"빚":4673,"빛":4674,"빜":4675,"빝":4676,"빞":4677,"빟":4678,"빠":4679,"빡":4680,"빢":4681,"빤":4682,"빧":4683,"빨":4684,"빩":4685,"빪":4686,"빫":4687,"빯":4688,"빰":4689,"빱":4690,"빳":4691,"빴":4692,"빵":4693,"빶":4694,"빷":4695,"빸":4696,"빹":4697,"빻":4698,"빼":4699,"빽":4700,"빾":4701,"뺀":4702,"뺃":4703,"뺄":4704,"뺌":4705,"뺍":4706,"뺏":4707,"뺐":4708,"뺑":4709,"뺒":4710,"뺕":4711,"뺗":4712,"뺘":4713,"뺙":4714,"뺚":4715,"뺜":4716,"뺠":4717,"뺨":4718,"뺩":4719,"뺫":4720,"뺭":4721,"뺴":4722,"뺵":4723,"뺶":4724,"뺸":4725,"뺼":4726,"뻄":4727,"뻅":4728,"뻇":4729,"뻈":4730,"뻉":4731,"뻍":4732,"뻐":4733,"뻑":4734,"뻒":4735,"뻔":4736,"뻖":4737,"뻗":4738,"뻘":4739,"뻠":4740,"뻡":4741,"뻣":4742,"뻤":4743,"뻥":4744,"뻦":4745,"뻨":4746,"뻩":4747,"뻫":4748,"뻬":4749,"뻭":4750,"뻰":4751,"뻴":4752,"뻼":4753,"뻽":4754,"뻿":4755,"뼀":4756,"뼁":4757,"뼈":4758,"뼉":4759,"뼌":4760,"뼏":4761,"뼐":4762,"뼘":4763,"뼙":4764,"뼛":4765,"뼜":4766,"뼝":4767,"뼡":4768,"뼤":4769,"뼨":4770,"뽀":4771,"뽁":4772,"뽂":4773,"뽄":4774,"뽇":4775,"뽈":4776,"뽐":4777,"뽑":4778,"뽓":4779,"뽔":4780,"뽕":4781,"뽖":4782,"뽘":4783,"뽚":4784,"뽛":4785,"뽜":4786,"뽝":4787,"뽞":4788,"뽠":4789,"뽤":4790,"뽥":4791,"뽬":4792,"뽭":4793,"뽯":4794,"뽰":4795,"뽱":4796,"뽴":4797,"뽷":4798,"뽸":4799,"뽹":4800,"뾔":4801,"뾘":4802,"뾫":4803,"뾰":4804,"뾱":4805,"뾲":4806,"뾴":4807,"뾸":4808,"뿀":4809,"뿁":4810,"뿃":4811,"뿅":4812,"뿌":4813,"뿍":4814,"뿎":4815,"뿐":4816,"뿓":4817,"뿔":4818,"뿕":4819,"뿛":4820,"뿜":4821,"뿝":4822,"뿟":4823,"뿠":4824,"뿡":4825,"뿤":4826,"뿥":4827,"뿧":4828,"뿨":4829,"뿩":4830,"뿬":4831,"뿰":4832,"뿼":4833,"뿽":4834,"쀄":4835,"쀅":4836,"쀍":4837,"쀔":4838,"쀙":4839,"쀠":4840,"쀡":4841,"쀨":4842,"쀵":4843,"쀼":4844,"쀽":4845,"쀾":4846,"쁀":4847,"쁄":4848,"쁌":4849,"쁍":4850,"쁑":4851,"쁘":4852,"쁙":4853,"쁜":4854,"쁝":4855,"쁟":4856,"쁠":4857,"쁨":4858,"쁩":4859,"쁫":4860,"쁭":4861,"쁮":4862,"쁰":4863,"쁱":4864,"쁴":4865,"쁼":4866,"삉":4867,"삐":4868,"삑":4869,"삒":4870,"삔":4871,"삗":4872,"삘":4873,"삠":4874,"삡":4875,"삣":4876,"삤":4877,"삥":4878,"삦":4879,"삧":4880,"삨":4881,"사":4882,"삭":4883,"삮":4884,"삯":4885,"산":4886,"삱":4887,"삲":4888,"삳":4889,"살":4890,"삵":4891,"삶":4892,"삷":4893,"삸":4894,"삺":4895,"삻":4896,"삼":4897,"삽":4898,"삾":4899,"삿":4900,"샀":4901,"상":4902,"샂":4903,"샃":4904,"샄":4905,"샅":4906,"샆":4907,"샇":4908,"새":4909,"색":4910,"샊":4911,"샋":4912,"샌":4913,"샏":4914,"샐":4915,"샒":4916,"샔":4917,"샘":4918,"샙":4919,"샛":4920,"샜":4921,"생":4922,"샞":4923,"샟":4924,"샠":4925,"샡":4926,"샢":4927,"샣":4928,"샤":4929,"샥":4930,"샦":4931,"샨":4932,"샫":4933,"샬":4934,"샮":4935,"샴":4936,"샵":4937,"샷":4938,"샸":4939,"샹":4940,"샺":4941,"샻":4942,"샼":4943,"샽":4944,"샾":4945,"샿":4946,"섀":4947,"섁":4948,"섄":4949,"섈":4950,"섊":4951,"섏":4952,"섐":4953,"섓":4954,"섕":4955,"서":4956,"석":4957,"섞":4958,"섟":4959,"선":4960,"섡":4961,"섢":4962,"섣":4963,"설":4964,"섥":4965,"섦":4966,"섧":4967,"섩":4968,"섪":4969,"섫":4970,"섬":4971,"섭":4972,"섮":4973,"섯":4974,"섰":4975,"성":4976,"섲":4977,"섳":4978,"섴":4979,"섵":4980,"섶":4981,"섷":4982,"세":4983,"섹":4984,"섺":4985,"섻":4986,"센":4987,"섿":4988,"셀":4989,"셂":4990,"셆":4991,"셈":4992,"셉":4993,"셊":4994,"셋":4995,"셌":4996,"셍":4997,"셎":4998,"셏":4999,"셐":5000,"셑":5001,"셒":5002,"셓":5003,"셔":5004,"셕":5005,"셖":5006,"션":5007,"셙":5008,"셚":5009,"셛":5010,"셜":5011,"셟":5012,"셤":5013,"셥":5014,"셧":5015,"셨":5016,"셩":5017,"셪":5018,"셫":5019,"셬":5020,"셭":5021,"셮":5022,"셯":5023,"셰":5024,"셱":5025,"셴":5026,"셸":5027,"솀":5028,"솁":5029,"솃":5030,"솄":5031,"솅":5032,"솈":5033,"솊":5034,"소":5035,"속":5036,"솎":5037,"솏":5038,"손":5039,"솑":5040,"솓":5041,"솔":5042,"솕":5043,"솖":5044,"솘":5045,"솛":5046,"솜":5047,"솝":5048,"솟":5049,"솠":5050,"송":5051,"솢":5052,"솣":5053,"솤":5054,"솥":5055,"솦":5056,"솧":5057,"솨":5058,"솩":5059,"솬":5060,"솰":5061,"솸":5062,"솹":5063,"솻":5064,"솼":5065,"솽":5066,"쇄":5067,"쇅":5068,"쇈":5069,"쇌":5070,"쇗":5071,"쇘":5072,"쇙":5073,"쇟":5074,"쇠":5075,"쇡":5076,"쇤":5077,"쇨":5078,"쇰":5079,"쇱":5080,"쇳":5081,"쇵":5082,"쇼":5083,"쇽":5084,"숀":5085,"숃":5086,"숄":5087,"숌":5088,"숍":5089,"숏":5090,"숐":5091,"숑":5092,"숒":5093,"숓":5094,"숔":5095,"숕":5096,"숖":5097,"숗":5098,"수":5099,"숙":5100,"숚":5101,"숛":5102,"순":5103,"숝":5104,"숞":5105,"숟":5106,"술":5107,"숡":5108,"숢":5109,"숧":5110,"숨":5111,"숩":5112,"숫":5113,"숬":5114,"숭":5115,"숮":5116,"숯":5117,"숰":5118,"숱":5119,"숲":5120,"숳":5121,"숴":5122,"숵":5123,"숸":5124,"숼":5125,"쉄":5126,"쉅":5127,"쉇":5128,"쉈":5129,"쉉":5130,"쉊":5131,"쉌":5132,"쉎":5133,"쉐":5134,"쉑":5135,"쉒":5136,"쉔":5137,"쉕":5138,"쉗":5139,"쉘":5140,"쉙":5141,"쉜":5142,"쉞":5143,"쉠":5144,"쉡":5145,"쉣":5146,"쉤":5147,"쉥":5148,"쉨":5149,"쉩":5150,"쉪":5151,"쉬":5152,"쉭":5153,"쉰":5154,"쉳":5155,"쉴":5156,"쉼":5157,"쉽":5158,"쉾":5159,"쉿":5160,"슀":5161,"슁":5162,"슂":5163,"슄":5164,"슅":5165,"슆":5166,"슈":5167,"슉":5168,"슊":5169,"슋":5170,"슌":5171,"슏":5172,"슐":5173,"슒":5174,"슘":5175,"슙":5176,"슛":5177,"슝":5178,"슞":5179,"슟":5180,"슠":5181,"슡":5182,"슢":5183,"슣":5184,"스":5185,"슥":5186,"슦":5187,"슧":5188,"슨":5189,"슩":5190,"슫":5191,"슬":5192,"슭":5193,"슮":5194,"슯":5195,"슲":5196,"슳":5197,"슴":5198,"습":5199,"슶":5200,"슷":5201,"슸":5202,"승":5203,"슺":5204,"슻":5205,"슼":5206,"슽":5207,"슾":5208,"슿":5209,"싀":5210,"싁":5211,"싄":5212,"싇":5213,"싈":5214,"싐":5215,"싑":5216,"싓":5217,"싕":5218,"싖":5219,"싘":5220,"싚":5221,"시":5222,"식":5223,"싞":5224,"싟":5225,"신":5226,"싡":5227,"싢":5228,"싣":5229,"실":5230,"싥":5231,"싦":5232,"싧":5233,"싨":5234,"싩":5235,"싪":5236,"싫":5237,"심":5238,"십":5239,"싮":5240,"싯":5241,"싰":5242,"싱":5243,"싲":5244,"싳":5245,"싴":5246,"싵":5247,"싶":5248,"싷":5249,"싸":5250,"싹":5251,"싺":5252,"싻":5253,"싼":5254,"싾":5255,"싿":5256,"쌀":5257,"쌂":5258,"쌃":5259,"쌇":5260,"쌈":5261,"쌉":5262,"쌋":5263,"쌌":5264,"쌍":5265,"쌎":5266,"쌏":5267,"쌐":5268,"쌑":5269,"쌒":5270,"쌓":5271,"쌔":5272,"쌕":5273,"쌘":5274,"쌛":5275,"쌜":5276,"쌤":5277,"쌥":5278,"쌧":5279,"쌨":5280,"쌩":5281,"쌯":5282,"쌰":5283,"쌱":5284,"쌲":5285,"쌴":5286,"쌸":5287,"썀":5288,"썁":5289,"썃":5290,"썄":5291,"썅":5292,"썋":5293,"썌":5294,"썍":5295,"썐":5296,"썖":5297,"썜":5298,"썝":5299,"썡":5300,"써":5301,"썩":5302,"썪":5303,"썬":5304,"썯":5305,"썰":5306,"썱":5307,"썲":5308,"썷":5309,"썸":5310,"썹":5311,"썻":5312,"썼":5313,"썽":5314,"썾":5315,"쎀":5316,"쎁":5317,"쎂":5318,"쎃":5319,"쎄":5320,"쎅":5321,"쎆":5322,"쎈":5323,"쎌":5324,"쎔":5325,"쎕":5326,"쎗":5327,"쎘":5328,"쎙":5329,"쎜":5330,"쎝":5331,"쎠":5332,"쎡":5333,"쎤":5334,"쎨":5335,"쎰":5336,"쎱":5337,"쎳":5338,"쎴":5339,"쎵":5340,"쎼":5341,"쎽":5342,"쎾":5343,"쏀":5344,"쏄":5345,"쏌":5346,"쏍":5347,"쏐":5348,"쏘":5349,"쏙":5350,"쏚":5351,"쏜":5352,"쏟":5353,"쏠":5354,"쏨":5355,"쏩":5356,"쏫":5357,"쏬":5358,"쏭":5359,"쏮":5360,"쏯":5361,"쏰":5362,"쏱":5363,"쏳":5364,"쏴":5365,"쏵":5366,"쏸":5367,"쏼":5368,"쐄":5369,"쐅":5370,"쐇":5371,"쐈":5372,"쐉":5373,"쐏":5374,"쐐":5375,"쐑":5376,"쐔":5377,"쐘":5378,"쐣":5379,"쐤":5380,"쐥":5381,"쐬":5382,"쐭":5383,"쐰":5384,"쐴":5385,"쐼":5386,"쐽":5387,"쐿":5388,"쑀":5389,"쑁":5390,"쑈":5391,"쑉":5392,"쑊":5393,"쑌":5394,"쑐":5395,"쑘":5396,"쑛":5397,"쑝":5398,"쑤":5399,"쑥":5400,"쑦":5401,"쑨":5402,"쑫":5403,"쑬":5404,"쑴":5405,"쑵":5406,"쑷":5407,"쑹":5408,"쑺":5409,"쑻":5410,"쑼":5411,"쒀":5412,"쒄":5413,"쒈":5414,"쒑":5415,"쒓":5416,"쒔":5417,"쒕":5418,"쒘":5419,"쒜":5420,"쒝":5421,"쒞":5422,"쒠":5423,"쒤":5424,"쒬":5425,"쒭":5426,"쒯":5427,"쒰":5428,"쒱":5429,"쒴":5430,"쒵":5431,"쒸":5432,"쒹":5433,"쒼":5434,"쓀":5435,"쓈":5436,"쓉":5437,"쓋":5438,"쓍":5439,"쓐":5440,"쓑":5441,"쓔":5442,"쓕":5443,"쓖":5444,"쓘":5445,"쓜":5446,"쓤":5447,"쓥":5448,"쓧":5449,"쓩":5450,"쓰":5451,"쓱":5452,"쓲":5453,"쓳":5454,"쓴":5455,"쓵":5456,"쓷":5457,"쓸":5458,"쓹":5459,"쓺":5460,"쓻":5461,"쓼":5462,"쓿":5463,"씀":5464,"씁":5465,"씃":5466,"씄":5467,"씅":5468,"씆":5469,"씇":5470,"씈":5471,"씉":5472,"씊":5473,"씋":5474,"씌":5475,"씍":5476,"씐":5477,"씔":5478,"씜":5479,"씝":5480,"씟":5481,"씡":5482,"씤":5483,"씥":5484,"씨":5485,"씩":5486,"씪":5487,"씬":5488,"씭":5489,"씯":5490,"씰":5491,"씸":5492,"씹":5493,"씺":5494,"씻":5495,"씼":5496,"씽":5497,"씾":5498,"씿":5499,"앀":5500,"앁":5501,"앂":5502,"앃":5503,"아":5504,"악":5505,"앆":5506,"앇":5507,"안":5508,"앉":5509,"않":5510,"앋":5511,"알":5512,"앍":5513,"앎":5514,"앏":5515,"앐":5516,"앑":5517,"앒":5518,"앓":5519,"암":5520,"압":5521,"앖":5522,"앗":5523,"았":5524,"앙":5525,"앚":5526,"앛":5527,"앜":5528,"앝":5529,"앞":5530,"앟":5531,"애":5532,"액":5533,"앢":5534,"앣":5535,"앤":5536,"앦":5537,"앧":5538,"앨":5539,"앩":5540,"앫":5541,"앰":5542,"앱":5543,"앲":5544,"앳":5545,"앴":5546,"앵":5547,"앶":5548,"앷":5549,"앸":5550,"앹":5551,"앺":5552,"앻":5553,"야":5554,"약":5555,"앾":5556,"앿":5557,"얀":5558,"얂":5559,"얃":5560,"얄":5561,"얅":5562,"얆":5563,"얇":5564,"얉":5565,"얊":5566,"얋":5567,"얌":5568,"얍":5569,"얎":5570,"얏":5571,"얐":5572,"양":5573,"얒":5574,"얓":5575,"얔":5576,"얕":5577,"얖":5578,"얗":5579,"얘":5580,"얙":5581,"얜":5582,"얠":5583,"얨":5584,"얩":5585,"얫":5586,"얬":5587,"얭":5588,"얳":5589,"어":5590,"억":5591,"얶":5592,"얷":5593,"언":5594,"얹":5595,"얺":5596,"얻":5597,"얼":5598,"얽":5599,"얾":5600,"얿":5601,"엀":5602,"엂":5603,"엃":5604,"엄":5605,"업":5606,"없":5607,"엇":5608,"었":5609,"엉":5610,"엊":5611,"엋":5612,"엌":5613,"엍":5614,"엎":5615,"엏":5616,"에":5617,"엑":5618,"엒":5619,"엓":5620,"엔":5621,"엕":5622,"엗":5623,"엘":5624,"엙":5625,"엛":5626,"엜":5627,"엞":5628,"엠":5629,"엡":5630,"엢":5631,"엣":5632,"엤":5633,"엥":5634,"엦":5635,"엧":5636,"엨":5637,"엩":5638,"엪":5639,"엫":5640,"여":5641,"역":5642,"엮":5643,"엯":5644,"연":5645,"엱":5646,"엲":5647,"엳":5648,"열":5649,"엵":5650,"엶":5651,"엷":5652,"엸":5653,"엹":5654,"엺":5655,"엻":5656,"염":5657,"엽":5658,"엾":5659,"엿":5660,"였":5661,"영":5662,"옂":5663,"옃":5664,"옄":5665,"옅":5666,"옆":5667,"옇":5668,"예":5669,"옉":5670,"옌":5671,"옐":5672,"옒":5673,"옘":5674,"옙":5675,"옛":5676,"옜":5677,"옝":5678,"옞":5679,"옠":5680,"옢":5681,"옣":5682,"오":5683,"옥":5684,"옦":5685,"옧":5686,"온":5687,"옩":5688,"옪":5689,"옫":5690,"올":5691,"옭":5692,"옮":5693,"옯":5694,"옰":5695,"옲":5696,"옳":5697,"옴":5698,"옵":5699,"옶":5700,"옷":5701,"옸":5702,"옹":5703,"옺":5704,"옻":5705,"옼":5706,"옽":5707,"옾":5708,"옿":5709,"와":5710,"왁":5711,"왂":5712,"왃":5713,"완":5714,"왅":5715,"왆":5716,"왇":5717,"왈":5718,"왉":5719,"왐":5720,"왑":5721,"왓":5722,"왔":5723,"왕":5724,"왖":5725,"왘":5726,"왙":5727,"왚":5728,"왛":5729,"왜":5730,"왝":5731,"왠":5732,"왡":5733,"왤":5734,"왬":5735,"왭":5736,"왯":5737,"왰":5738,"왱":5739,"왴":5740,"외":5741,"왹":5742,"왼":5743,"왿":5744,"욀":5745,"욈":5746,"욉":5747,"욋":5748,"욌":5749,"욍":5750,"욎":5751,"욐":5752,"요":5753,"욕":5754,"욖":5755,"욗":5756,"욘":5757,"욚":5758,"욛":5759,"욜":5760,"욝":5761,"욞":5762,"욣":5763,"욤":5764,"욥":5765,"욧":5766,"욨":5767,"용":5768,"욪":5769,"욫":5770,"욬":5771,"욭":5772,"욮":5773,"욯":5774,"우":5775,"욱":5776,"욲":5777,"욳":5778,"운":5779,"욵":5780,"욶":5781,"욷":5782,"울":5783,"욹":5784,"욺":5785,"욼":5786,"욽":5787,"욾":5788,"욿":5789,"움":5790,"웁":5791,"웂":5792,"웃":5793,"웄":5794,"웅":5795,"웆":5796,"웇":5797,"웈":5798,"웉":5799,"웊":5800,"웋":5801,"워":5802,"웍":5803,"웎":5804,"원":5805,"웑":5806,"웒":5807,"웓":5808,"월":5809,"웕":5810,"웖":5811,"웗":5812,"웘":5813,"웚":5814,"웛":5815,"웜":5816,"웝":5817,"웞":5818,"웟":5819,"웠":5820,"웡":5821,"웢":5822,"웣":5823,"웤":5824,"웥":5825,"웦":5826,"웧":5827,"웨":5828,"웩":5829,"웪":5830,"웬":5831,"웯":5832,"웰":5833,"웱":5834,"웸":5835,"웹":5836,"웻":5837,"웼":5838,"웽":5839,"윀":5840,"윁":5841,"위":5842,"윅":5843,"윈":5844,"윋":5845,"윌":5846,"윔":5847,"윕":5848,"윗":5849,"윘":5850,"윙":5851,"윚":5852,"윛":5853,"윜":5854,"윝":5855,"윞":5856,"윟":5857,"유":5858,"육":5859,"윢":5860,"윣":5861,"윤":5862,"윥":5863,"윦":5864,"윧":5865,"율":5866,"윪":5867,"윯":5868,"윰":5869,"윱":5870,"윳":5871,"융":5872,"윶":5873,"윷":5874,"윸":5875,"윹":5876,"윺":5877,"윻":5878,"으":5879,"윽":5880,"윾":5881,"윿":5882,"은":5883,"읁":5884,"읂":5885,"읃":5886,"을":5887,"읅":5888,"읆":5889,"읇":5890,"읈":5891,"읉":5892,"읊":5893,"읋":5894,"음":5895,"읍":5896,"읎":5897,"읏":5898,"읐":5899,"응":5900,"읒":5901,"읓":5902,"읔":5903,"읕":5904,"읖":5905,"읗":5906,"의":5907,"읙":5908,"읜":5909,"읟":5910,"읠":5911,"읨":5912,"읩":5913,"읪":5914,"읫":5915,"읬":5916,"읭":5917,"읮":5918,"읰":5919,"읳":5920,"이":5921,"익":5922,"읶":5923,"읷":5924,"인":5925,"읹":5926,"읺":5927,"읻":5928,"일":5929,"읽":5930,"읾":5931,"읿":5932,"잀":5933,"잁":5934,"잂":5935,"잃":5936,"임":5937,"입":5938,"잆":5939,"잇":5940,"있":5941,"잉":5942,"잊":5943,"잋":5944,"잌":5945,"잍":5946,"잎":5947,"잏":5948,"자":5949,"작":5950,"잒":5951,"잓":5952,"잔":5953,"잕":5954,"잖":5955,"잗":5956,"잘":5957,"잙":5958,"잚":5959,"잛":5960,"잜":5961,"잝":5962,"잞":5963,"잟":5964,"잠":5965,"잡":5966,"잢":5967,"잣":5968,"잤":5969,"장":5970,"잦":5971,"잧":5972,"잨":5973,"잩":5974,"잪":5975,"잫":5976,"재":5977,"잭":5978,"잰":5979,"잲":5980,"잳":5981,"잴":5982,"잶":5983,"잼":5984,"잽":5985,"잿":5986,"쟀":5987,"쟁":5988,"쟂":5989,"쟃":5990,"쟄":5991,"쟆":5992,"쟇":5993,"쟈":5994,"쟉":5995,"쟌":5996,"쟎":5997,"쟏":5998,"쟐":5999,"쟘":6000,"쟙":6001,"쟛":6002,"쟜":6003,"쟝":6004,"쟞":6005,"쟠":6006,"쟢":6007,"쟣":6008,"쟤":6009,"쟨":6010,"쟬":6011,"쟴":6012,"쟸":6013,"쟹":6014,"저":6015,"적":6016,"젂":6017,"젃":6018,"전":6019,"젅":6020,"젆":6021,"젇":6022,"절":6023,"젉":6024,"젊":6025,"젋":6026,"젌":6027,"젎":6028,"젏":6029,"점":6030,"접":6031,"젒":6032,"젓":6033,"젔":6034,"정":6035,"젖":6036,"젗":6037,"젘":6038,"젙":6039,"젚":6040,"젛":6041,"제":6042,"젝":6043,"젠":6044,"젣":6045,"젤":6046,"젨":6047,"젬":6048,"젭":6049,"젯":6050,"젰":6051,"젱":6052,"젲":6053,"젳":6054,"젴":6055,"젵":6056,"젶":6057,"젷":6058,"져":6059,"젹":6060,"젺":6061,"젼":6062,"젾":6063,"젿":6064,"졀":6065,"졈":6066,"졉":6067,"졋":6068,"졌":6069,"졍":6070,"졎":6071,"졏":6072,"졐":6073,"졑":6074,"졒":6075,"졓":6076,"졔":6077,"졘":6078,"졜":6079,"졤":6080,"졨":6081,"졩":6082,"조":6083,"족":6084,"졲":6085,"졳":6086,"존":6087,"졵":6088,"졶":6089,"졷":6090,"졸":6091,"졹":6092,"졺":6093,"졻":6094,"졿":6095,"좀":6096,"좁":6097,"좂":6098,"좃":6099,"좄":6100,"종":6101,"좆":6102,"좇":6103,"좈":6104,"좉":6105,"좊":6106,"좋":6107,"좌":6108,"좍":6109,"좎":6110,"좐":6111,"좔":6112,"좜":6113,"좝":6114,"좟":6115,"좠":6116,"좡":6117,"좢":6118,"좥":6119,"좦":6120,"좧":6121,"좨":6122,"좩":6123,"좪":6124,"좫":6125,"좬":6126,"좭":6127,"좮":6128,"좯":6129,"좰":6130,"좱":6131,"좸":6132,"좼":6133,"좽":6134,"죂":6135,"죃":6136,"죄":6137,"죅":6138,"죈":6139,"죌":6140,"죔":6141,"죕":6142,"죗":6143,"죘":6144,"죙":6145,"죚":6146,"죟":6147,"죠":6148,"죡":6149,"죤":6150,"죦":6151,"죧":6152,"죨":6153,"죰":6154,"죱":6155,"죳":6156,"죴":6157,"죵":6158,"죶":6159,"죷":6160,"죸":6161,"죹":6162,"죺":6163,"죻":6164,"주":6165,"죽":6166,"죾":6167,"죿":6168,"준":6169,"줁":6170,"줂":6171,"줃":6172,"줄":6173,"줅":6174,"줆":6175,"줈":6176,"줋":6177,"줌":6178,"줍":6179,"줏":6180,"줐":6181,"중":6182,"줒":6183,"줓":6184,"줔":6185,"줕":6186,"줖":6187,"줗":6188,"줘":6189,"줙":6190,"줚":6191,"줜":6192,"줝":6193,"줟":6194,"줠":6195,"줨":6196,"줩":6197,"줫":6198,"줬":6199,"줭":6200,"줮":6201,"줰":6202,"줳":6203,"줴":6204,"줵":6205,"줸":6206,"줼":6207,"쥄":6208,"쥅":6209,"쥇":6210,"쥈":6211,"쥉":6212,"쥐":6213,"쥑":6214,"쥔":6215,"쥘":6216,"쥠":6217,"쥡":6218,"쥣":6219,"쥤":6220,"쥥":6221,"쥨":6222,"쥫":6223,"쥬":6224,"쥭":6225,"쥰":6226,"쥲":6227,"쥳":6228,"쥴":6229,"쥼":6230,"쥽":6231,"쥿":6232,"즁":6233,"즂":6234,"즄":6235,"즅":6236,"즆":6237,"즇":6238,"즈":6239,"즉":6240,"즋":6241,"즌":6242,"즏":6243,"즐":6244,"즑":6245,"즘":6246,"즙":6247,"즛":6248,"즜":6249,"증":6250,"즞":6251,"즟":6252,"즠":6253,"즡":6254,"즢":6255,"즣":6256,"즤":6257,"즥":6258,"즨":6259,"즬":6260,"즴":6261,"즵":6262,"즷":6263,"즹":6264,"즼":6265,"지":6266,"직":6267,"짂":6268,"짃":6269,"진":6270,"짅":6271,"짆":6272,"짇":6273,"질":6274,"짉":6275,"짊":6276,"짋":6277,"짌":6278,"짍":6279,"짏":6280,"짐":6281,"집":6282,"짒":6283,"짓":6284,"짔":6285,"징":6286,"짖":6287,"짗":6288,"짘":6289,"짙":6290,"짚":6291,"짛":6292,"짜":6293,"짝":6294,"짞":6295,"짠":6296,"짢":6297,"짣":6298,"짤":6299,"짥":6300,"짦":6301,"짧":6302,"짪":6303,"짫":6304,"짬":6305,"짭":6306,"짮":6307,"짯":6308,"짰":6309,"짱":6310,"짲":6311,"짳":6312,"짴":6313,"짵":6314,"짶":6315,"짷":6316,"째":6317,"짹":6318,"짺":6319,"짼":6320,"짾":6321,"짿":6322,"쨀":6323,"쨈":6324,"쨉":6325,"쨋":6326,"쨌":6327,"쨍":6328,"쨎":6329,"쨏":6330,"쨐":6331,"쨓":6332,"쨔":6333,"쨕":6334,"쨖":6335,"쨘":6336,"쨚":6337,"쨜":6338,"쨟":6339,"쨤":6340,"쨥":6341,"쨧":6342,"쨨":6343,"쨩":6344,"쨪":6345,"쨬":6346,"쨰":6347,"쨱":6348,"쨴":6349,"쨸":6350,"쩀":6351,"쩁":6352,"쩃":6353,"쩄":6354,"쩅":6355,"쩌":6356,"쩍":6357,"쩎":6358,"쩐":6359,"쩓":6360,"쩔":6361,"쩖":6362,"쩗":6363,"쩘":6364,"쩜":6365,"쩝":6366,"쩟":6367,"쩠":6368,"쩡":6369,"쩢":6370,"쩧":6371,"쩨":6372,"쩩":6373,"쩬":6374,"쩰":6375,"쩸":6376,"쩹":6377,"쩻":6378,"쩼":6379,"쩽":6380,"쪄":6381,"쪅":6382,"쪈":6383,"쪌":6384,"쪔":6385,"쪕":6386,"쪗":6387,"쪘":6388,"쪙":6389,"쪜":6390,"쪟":6391,"쪠":6392,"쪤":6393,"쪨":6394,"쪰":6395,"쪱":6396,"쪵":6397,"쪹":6398,"쪻":6399,"쪼":6400,"쪽":6401,"쪾":6402,"쫀":6403,"쫁":6404,"쫂":6405,"쫃":6406,"쫄":6407,"쫅":6408,"쫆":6409,"쫌":6410,"쫍":6411,"쫏":6412,"쫐":6413,"쫑":6414,"쫒":6415,"쫓":6416,"쫔":6417,"쫗":6418,"쫘":6419,"쫙":6420,"쫚":6421,"쫛":6422,"쫜":6423,"쫟":6424,"쫠":6425,"쫤":6426,"쫨":6427,"쫩":6428,"쫫":6429,"쫬":6430,"쫭":6431,"쫰":6432,"쫳":6433,"쫴":6434,"쬄":6435,"쬈":6436,"쬉":6437,"쬎":6438,"쬐":6439,"쬑":6440,"쬔":6441,"쬘":6442,"쬠":6443,"쬡":6444,"쬣":6445,"쬤":6446,"쬥":6447,"쬬":6448,"쬭":6449,"쬮":6450,"쬰":6451,"쬲":6452,"쬴":6453,"쬼":6454,"쬽":6455,"쬿":6456,"쭁":6457,"쭄":6458,"쭈":6459,"쭉":6460,"쭊":6461,"쭌":6462,"쭏":6463,"쭐":6464,"쭕":6465,"쭗":6466,"쭘":6467,"쭙":6468,"쭛":6469,"쭜":6470,"쭝":6471,"쭞":6472,"쭠":6473,"쭤":6474,"쭥":6475,"쭨":6476,"쭬":6477,"쭭":6478,"쭴":6479,"쭵":6480,"쭷":6481,"쭸":6482,"쭹":6483,"쭻":6484,"쭿":6485,"쮀":6486,"쮈":6487,"쮓":6488,"쮕":6489,"쮜":6490,"쮝":6491,"쮠":6492,"쮡":6493,"쮤":6494,"쮬":6495,"쮭":6496,"쮱":6497,"쮸":6498,"쮹":6499,"쮼":6500,"쯀":6501,"쯈":6502,"쯉":6503,"쯋":6504,"쯍":6505,"쯔":6506,"쯕":6507,"쯘":6508,"쯜":6509,"쯤":6510,"쯥":6511,"쯧":6512,"쯨":6513,"쯩":6514,"쯪":6515,"쯰":6516,"쯱":6517,"쯴":6518,"쯸":6519,"찅":6520,"찌":6521,"찍":6522,"찎":6523,"찐":6524,"찓":6525,"찔":6526,"찖":6527,"찗":6528,"찜":6529,"찝":6530,"찟":6531,"찠":6532,"찡":6533,"찢":6534,"찣":6535,"찤":6536,"찥":6537,"찦":6538,"찧":6539,"차":6540,"착":6541,"찪":6542,"찫":6543,"찬":6544,"찭":6545,"찮":6546,"찯":6547,"찰":6548,"찱":6549,"찳":6550,"찴":6551,"찷":6552,"참":6553,"찹":6554,"찺":6555,"찻":6556,"찼":6557,"창":6558,"찾":6559,"찿":6560,"챀":6561,"챁":6562,"챂":6563,"챃":6564,"채":6565,"책":6566,"챆":6567,"챈":6568,"챊":6569,"챋":6570,"챌":6571,"챎":6572,"챔":6573,"챕":6574,"챗":6575,"챘":6576,"챙":6577,"챚":6578,"챛":6579,"챜":6580,"챝":6581,"챞":6582,"챟":6583,"챠":6584,"챡":6585,"챤":6586,"챦":6587,"챧":6588,"챨":6589,"챪":6590,"챰":6591,"챱":6592,"챳":6593,"챴":6594,"챵":6595,"챶":6596,"챷":6597,"챸":6598,"챹":6599,"챺":6600,"챻":6601,"챼":6602,"챽":6603,"첀":6604,"첌":6605,"첑":6606,"처":6607,"척":6608,"첚":6609,"첛":6610,"천":6611,"첝":6612,"첞":6613,"첟":6614,"철":6615,"첡":6616,"첢":6617,"첣":6618,"첧":6619,"첨":6620,"첩":6621,"첫":6622,"첬":6623,"청":6624,"첮":6625,"첯":6626,"첰":6627,"첱":6628,"첲":6629,"첳":6630,"체":6631,"첵":6632,"첸":6633,"첻":6634,"첼":6635,"쳄":6636,"쳅":6637,"쳇":6638,"쳈":6639,"쳉":6640,"쳊":6641,"쳋":6642,"쳌":6643,"쳏":6644,"쳐":6645,"쳑":6646,"쳒":6647,"쳔":6648,"쳗":6649,"쳘":6650,"쳠":6651,"쳡":6652,"쳣":6653,"쳤":6654,"쳥":6655,"쳦":6656,"쳧":6657,"쳨":6658,"쳩":6659,"쳪":6660,"쳫":6661,"쳬":6662,"쳰":6663,"쳴":6664,"초":6665,"촉":6666,"촊":6667,"촋":6668,"촌":6669,"촎":6670,"촏":6671,"촐":6672,"촑":6673,"촘":6674,"촙":6675,"촛":6676,"총":6677,"촞":6678,"촟":6679,"촠":6680,"촡":6681,"촢":6682,"촣":6683,"촤":6684,"촥":6685,"촦":6686,"촨":6687,"촪":6688,"촫":6689,"촬":6690,"촭":6691,"촮":6692,"촴":6693,"촵":6694,"촷":6695,"촸":6696,"촹":6697,"촺":6698,"촻":6699,"촼":6700,"촿":6701,"쵀":6702,"쵁":6703,"쵄":6704,"쵐":6705,"쵑":6706,"쵕":6707,"최":6708,"쵝":6709,"쵠":6710,"쵣":6711,"쵤":6712,"쵬":6713,"쵭":6714,"쵯":6715,"쵱":6716,"쵲":6717,"쵳":6718,"쵴":6719,"쵸":6720,"쵹":6721,"쵺":6722,"쵼":6723,"쵿":6724,"춀":6725,"춈":6726,"춉":6727,"춋":6728,"춌":6729,"춍":6730,"춏":6731,"춐":6732,"춑":6733,"추":6734,"축":6735,"춗":6736,"춘":6737,"춚":6738,"춛":6739,"출":6740,"춝":6741,"춞":6742,"춟":6743,"춠":6744,"춡":6745,"춢":6746,"춣":6747,"춤":6748,"춥":6749,"춧":6750,"충":6751,"춪":6752,"춫":6753,"춬":6754,"춭":6755,"춮":6756,"춯":6757,"춰":6758,"춱":6759,"춴":6760,"춸":6761,"췀":6762,"췁":6763,"췃":6764,"췄":6765,"췅":6766,"췆":6767,"췈":6768,"췌":6769,"췍":6770,"췐":6771,"췔":6772,"췜":6773,"췝":6774,"췟":6775,"췡":6776,"췤":6777,"취":6778,"췩":6779,"췬":6780,"췰":6781,"췸":6782,"췹":6783,"췻":6784,"췼":6785,"췽":6786,"췾":6787,"츀":6788,"츃":6789,"츄":6790,"츅":6791,"츈":6792,"츊":6793,"츋":6794,"츌":6795,"츔":6796,"츕":6797,"츗":6798,"츙":6799,"츚":6800,"츛":6801,"츜":6802,"츝":6803,"츞":6804,"츟":6805,"츠":6806,"측":6807,"츤":6808,"츦":6809,"츧":6810,"츨":6811,"츩":6812,"츰":6813,"츱":6814,"츳":6815,"층":6816,"츶":6817,"츷":6818,"츸":6819,"츹":6820,"츺":6821,"츻":6822,"츼":6823,"츽":6824,"칀":6825,"칄":6826,"칌":6827,"칏":6828,"칑":6829,"칔":6830,"치":6831,"칙":6832,"칚":6833,"친":6834,"칝":6835,"칞":6836,"칟":6837,"칠":6838,"칡":6839,"칢":6840,"칣":6841,"칧":6842,"침":6843,"칩":6844,"칫":6845,"칬":6846,"칭":6847,"칮":6848,"칯":6849,"칰":6850,"칱":6851,"칲":6852,"칳":6853,"카":6854,"칵":6855,"칸":6856,"칻":6857,"칼":6858,"칽":6859,"칾":6860,"캀":6861,"캃":6862,"캄":6863,"캅":6864,"캆":6865,"캇":6866,"캈":6867,"캉":6868,"캊":6869,"캋":6870,"캌":6871,"캍":6872,"캎":6873,"캏":6874,"캐":6875,"캑":6876,"캔":6877,"캘":6878,"캠":6879,"캡":6880,"캢":6881,"캣":6882,"캤":6883,"캥":6884,"캦":6885,"캨":6886,"캩":6887,"캪":6888,"캫":6889,"캬":6890,"캭":6891,"캰":6892,"캴":6893,"캵":6894,"캼":6895,"캽":6896,"캿":6897,"컀":6898,"컁":6899,"컄":6900,"컅":6901,"컇":6902,"컈":6903,"컌":6904,"컘":6905,"컙":6906,"커":6907,"컥":6908,"컨":6909,"컫":6910,"컬":6911,"컭":6912,"컯":6913,"컴":6914,"컵":6915,"컶":6916,"컷":6917,"컸":6918,"컹":6919,"컺":6920,"컻":6921,"컼":6922,"컽":6923,"컾":6924,"컿":6925,"케":6926,"켁":6927,"켄":6928,"켇":6929,"켈":6930,"켐":6931,"켑":6932,"켓":6933,"켔":6934,"켕":6935,"켗":6936,"켘":6937,"켙":6938,"켚":6939,"켛":6940,"켜":6941,"켝":6942,"켞":6943,"켠":6944,"켡":6945,"켣":6946,"켤":6947,"켬":6948,"켭":6949,"켯":6950,"켰":6951,"켱":6952,"켲":6953,"켴":6954,"켵":6955,"켷":6956,"켸":6957,"콀":6958,"콋":6959,"콌":6960,"콐":6961,"코":6962,"콕":6963,"콘":6964,"콙":6965,"콛":6966,"콜":6967,"콤":6968,"콥":6969,"콦":6970,"콧":6971,"콨":6972,"콩":6973,"콪":6974,"콫":6975,"콬":6976,"콭":6977,"콮":6978,"콯":6979,"콰":6980,"콱":6981,"콴":6982,"콸":6983,"쾀":6984,"쾁":6985,"쾃":6986,"쾅":6987,"쾈":6988,"쾌":6989,"쾍":6990,"쾐":6991,"쾒":6992,"쾔":6993,"쾡":6994,"쾨":6995,"쾩":6996,"쾬":6997,"쾰":6998,"쾽":6999,"쿄":7000,"쿅":7001,"쿈":7002,"쿌":7003,"쿔":7004,"쿕":7005,"쿗":7006,"쿘":7007,"쿙":7008,"쿜":7009,"쿠":7010,"쿡":7011,"쿤":7012,"쿧":7013,"쿨":7014,"쿭":7015,"쿰":7016,"쿱":7017,"쿳":7018,"쿵":7019,"쿷":7020,"쿸":7021,"쿹":7022,"쿺":7023,"쿻":7024,"쿼":7025,"쿽":7026,"퀀":7027,"퀄":7028,"퀉":7029,"퀌":7030,"퀍":7031,"퀏":7032,"퀐":7033,"퀑":7034,"퀔":7035,"퀕":7036,"퀘":7037,"퀙":7038,"퀜":7039,"퀠":7040,"퀩":7041,"퀫":7042,"퀭":7043,"퀴":7044,"퀵":7045,"퀸":7046,"퀼":7047,"큄":7048,"큅":7049,"큇":7050,"큉":7051,"큌":7052,"큍":7053,"큐":7054,"큑":7055,"큔":7056,"큗":7057,"큘":7058,"큠":7059,"큡":7060,"큣":7061,"큥":7062,"큨":7063,"큩":7064,"큪":7065,"큫":7066,"크":7067,"큭":7068,"큮":7069,"큰":7070,"큲":7071,"큳":7072,"클":7073,"큵":7074,"큶":7075,"큷":7076,"큹":7077,"큻":7078,"큼":7079,"큽":7080,"큿":7081,"킁":7082,"킂":7083,"킃":7084,"킄":7085,"킅":7086,"킆":7087,"킇":7088,"킈":7089,"킉":7090,"킌":7091,"킐":7092,"킘":7093,"킛":7094,"킝":7095,"킠":7096,"키":7097,"킥":7098,"킧":7099,"킨":7100,"킫":7101,"킬":7102,"킭":7103,"킰":7104,"킴":7105,"킵":7106,"킷":7107,"킸":7108,"킹":7109,"킺":7110,"킻":7111,"킼":7112,"킽":7113,"킾":7114,"킿":7115,"타":7116,"탁":7117,"탂":7118,"탄":7119,"탅":7120,"탆":7121,"탇":7122,"탈":7123,"탉":7124,"탊":7125,"탍":7126,"탐":7127,"탑":7128,"탓":7129,"탔":7130,"탕":7131,"탖":7132,"탗":7133,"탘":7134,"탙":7135,"탚":7136,"탛":7137,"태":7138,"택":7139,"탞":7140,"탟":7141,"탠":7142,"탣":7143,"탤":7144,"탬":7145,"탭":7146,"탯":7147,"탰":7148,"탱":7149,"탲":7150,"탳":7151,"탴":7152,"탵":7153,"탶":7154,"탷":7155,"탸":7156,"탹":7157,"탼":7158,"탿":7159,"턀":7160,"턈":7161,"턉":7162,"턋":7163,"턍":7164,"턎":7165,"턏":7166,"턑":7167,"턓":7168,"턔":7169,"턕":7170,"턘":7171,"터":7172,"턱":7173,"턴":7174,"턶":7175,"턷":7176,"털":7177,"턺":7178,"턻":7179,"턿":7180,"텀":7181,"텁":7182,"텂":7183,"텃":7184,"텄":7185,"텅":7186,"텆":7187,"텇":7188,"텈":7189,"텉":7190,"텊":7191,"텋":7192,"테":7193,"텍":7194,"텐":7195,"텑":7196,"텓":7197,"텔":7198,"템":7199,"텝":7200,"텟":7201,"텡":7202,"텢":7203,"텣":7204,"텤":7205,"텥":7206,"텦":7207,"텧":7208,"텨":7209,"텩":7210,"텬":7211,"텯":7212,"텰":7213,"텸":7214,"텹":7215,"텻":7216,"텼":7217,"텽":7218,"톁":7219,"톃":7220,"톄":7221,"톈":7222,"톌":7223,"톔":7224,"토":7225,"톡":7226,"톢":7227,"톤":7228,"톧":7229,"톨":7230,"톩":7231,"톰":7232,"톱":7233,"톳":7234,"통":7235,"톶":7236,"톷":7237,"톸":7238,"톹":7239,"톺":7240,"톻":7241,"톼":7242,"톽":7243,"퇀":7244,"퇄":7245,"퇌":7246,"퇍":7247,"퇏":7248,"퇑":7249,"퇗":7250,"퇘":7251,"퇫":7252,"퇴":7253,"퇵":7254,"퇶":7255,"퇸":7256,"퇼":7257,"툄":7258,"툅":7259,"툇":7260,"툉":7261,"툐":7262,"툑":7263,"툔":7264,"툗":7265,"툘":7266,"툠":7267,"툡":7268,"툣":7269,"툥":7270,"툩":7271,"투":7272,"툭":7273,"툰":7274,"툳":7275,"툴":7276,"툶":7277,"툻":7278,"툼":7279,"툽":7280,"툿":7281,"퉁":7282,"퉂":7283,"퉃":7284,"퉄":7285,"퉅":7286,"퉆":7287,"퉇":7288,"퉈":7289,"퉉":7290,"퉌":7291,"퉐":7292,"퉛":7293,"퉜":7294,"퉝":7295,"퉤":7296,"퉥":7297,"퉨":7298,"퉬":7299,"퉴":7300,"퉵":7301,"퉷":7302,"퉹":7303,"퉽":7304,"튀":7305,"튁":7306,"튄":7307,"튈":7308,"튐":7309,"튑":7310,"튓":7311,"튕":7312,"튜":7313,"튝":7314,"튠":7315,"튣":7316,"튤":7317,"튬":7318,"튭":7319,"튯":7320,"튱":7321,"튲":7322,"튳":7323,"튴":7324,"튵":7325,"튶":7326,"튷":7327,"트":7328,"특":7329,"튺":7330,"튻":7331,"튼":7332,"튽":7333,"튾":7334,"튿":7335,"틀":7336,"틁":7337,"틂":7338,"틃":7339,"틇":7340,"틈":7341,"틉":7342,"틊":7343,"틋":7344,"틍":7345,"틎":7346,"틏":7347,"틐":7348,"틑":7349,"틒":7350,"틓":7351,"틔":7352,"틕":7353,"틘":7354,"틜":7355,"틤":7356,"틥":7357,"틧":7358,"틩":7359,"틭":7360,"티":7361,"틱":7362,"틳":7363,"틴":7364,"틷":7365,"틸":7366,"팀":7367,"팁":7368,"팃":7369,"팄":7370,"팅":7371,"팆":7372,"팇":7373,"팈":7374,"팉":7375,"팊":7376,"팋":7377,"파":7378,"팍":7379,"팎":7380,"팏":7381,"판":7382,"팑":7383,"팒":7384,"팓":7385,"팔":7386,"팕":7387,"팖":7388,"팚":7389,"팜":7390,"팝":7391,"팟":7392,"팠":7393,"팡":7394,"팢":7395,"팣":7396,"팤":7397,"팥":7398,"팦":7399,"팧":7400,"패":7401,"팩":7402,"팬":7403,"팯":7404,"팰":7405,"팸":7406,"팹":7407,"팻":7408,"팼":7409,"팽":7410,"팾":7411,"퍀":7412,"퍁":7413,"퍂":7414,"퍃":7415,"퍄":7416,"퍅":7417,"퍈":7418,"퍋":7419,"퍌":7420,"퍔":7421,"퍕":7422,"퍗":7423,"퍙":7424,"퍛":7425,"퍜":7426,"퍝":7427,"퍞":7428,"퍟":7429,"퍠":7430,"퍡":7431,"퍤":7432,"퍼":7433,"퍽":7434,"펀":7435,"펃":7436,"펄":7437,"펌":7438,"펍":7439,"펏":7440,"펐":7441,"펑":7442,"펒":7443,"펓":7444,"펔":7445,"펕":7446,"펖":7447,"펗":7448,"페":7449,"펙":7450,"펜":7451,"펟":7452,"펠":7453,"펨":7454,"펩":7455,"펫":7456,"펭":7457,"펮":7458,"펰":7459,"펱":7460,"펲":7461,"펳":7462,"펴":7463,"펵":7464,"편":7465,"펹":7466,"펺":7467,"펻":7468,"펼":7469,"폁":7470,"폄":7471,"폅":7472,"폇":7473,"폈":7474,"평":7475,"폊":7476,"폋":7477,"폌":7478,"폍":7479,"폎":7480,"폏":7481,"폐":7482,"폑":7483,"폔":7484,"폘":7485,"폠":7486,"폡":7487,"폣":7488,"폥":7489,"포":7490,"폭":7491,"폮":7492,"폯":7493,"폰":7494,"폳":7495,"폴":7496,"폵":7497,"폼":7498,"폽":7499,"폿":7500,"퐀":7501,"퐁":7502,"퐂":7503,"퐃":7504,"퐄":7505,"퐅":7506,"퐆":7507,"퐇":7508,"퐈":7509,"퐉":7510,"퐊":7511,"퐌":7512,"퐐":7513,"퐑":7514,"퐘":7515,"퐙":7516,"퐛":7517,"퐜":7518,"퐝":7519,"퐞":7520,"퐠":7521,"퐢":7522,"퐣":7523,"퐤":7524,"퐥":7525,"퐨":7526,"푀":7527,"푁":7528,"푄":7529,"푈":7530,"푕":7531,"표":7532,"푝":7533,"푠":7534,"푣":7535,"푤":7536,"푬":7537,"푭":7538,"푯":7539,"푱":7540,"푲":7541,"푳":7542,"푴":7543,"푶":7544,"푷":7545,"푸":7546,"푹":7547,"푼":7548,"푿":7549,"풀":7550,"풁":7551,"풂":7552,"풆":7553,"품":7554,"풉":7555,"풋":7556,"풍":7557,"풎":7558,"풏":7559,"풐":7560,"풑":7561,"풒":7562,"풓":7563,"풔":7564,"풕":7565,"풖":7566,"풘":7567,"풜":7568,"풤":7569,"풩":7570,"풰":7571,"풱":7572,"풴":7573,"풸":7574,"풹":7575,"퓅":7576,"퓈":7577,"퓌":7578,"퓍":7579,"퓐":7580,"퓔":7581,"퓘":7582,"퓜":7583,"퓟":7584,"퓡":7585,"퓨":7586,"퓩":7587,"퓬":7588,"퓯":7589,"퓰":7590,"퓸":7591,"퓹":7592,"퓻":7593,"퓽":7594,"퓾":7595,"퓿":7596,"픀":7597,"픁":7598,"픂":7599,"픃":7600,"프":7601,"픅":7602,"픈":7603,"픋":7604,"플":7605,"픍":7606,"픎":7607,"픐":7608,"픓":7609,"픔":7610,"픕":7611,"픗":7612,"픙":7613,"픚":7614,"픛":7615,"픜":7616,"픝":7617,"픞":7618,"픟":7619,"픠":7620,"픤":7621,"픨":7622,"픰":7623,"픱":7624,"픵":7625,"피":7626,"픽":7627,"픿":7628,"핀":7629,"핃":7630,"필":7631,"핅":7632,"핆":7633,"핈":7634,"핉":7635,"핊":7636,"핋":7637,"핌":7638,"핍":7639,"핏":7640,"핐":7641,"핑":7642,"핒":7643,"핓":7644,"핔":7645,"핕":7646,"핖":7647,"핗":7648,"하":7649,"학":7650,"핚":7651,"핛":7652,"한":7653,"핝":7654,"핞":7655,"핟":7656,"할":7657,"핡":7658,"핢":7659,"핣":7660,"핤":7661,"핥":7662,"핦":7663,"핧":7664,"함":7665,"합":7666,"핪":7667,"핫":7668,"핬":7669,"항":7670,"핮":7671,"핯":7672,"핰":7673,"핱":7674,"핲":7675,"핳":7676,"해":7677,"핵":7678,"핶":7679,"핷":7680,"핸":7681,"핺":7682,"핻":7683,"핼":7684,"핾":7685,"햄":7686,"햅":7687,"햇":7688,"했":7689,"행":7690,"햊":7691,"햋":7692,"햌":7693,"햍":7694,"햎":7695,"햏":7696,"햐":7697,"햑":7698,"햔":7699,"햗":7700,"햘":7701,"햙":7702,"햛":7703,"햝":7704,"햟":7705,"햠":7706,"햡":7707,"햣":7708,"햤":7709,"향":7710,"햦":7711,"햧":7712,"햨":7713,"햩":7714,"햪":7715,"햫":7716,"햬":7717,"햰":7718,"햿":7719,"헀":7720,"헁":7721,"허":7722,"헉":7723,"헊":7724,"헋":7725,"헌":7726,"헍":7727,"헏":7728,"헐":7729,"헑":7730,"헒":7731,"헓":7732,"헕":7733,"헗":7734,"험":7735,"헙":7736,"헚":7737,"헛":7738,"헜":7739,"헝":7740,"헞":7741,"헟":7742,"헠":7743,"헡":7744,"헢":7745,"헣":7746,"헤":7747,"헥":7748,"헦":7749,"헨":7750,"헫":7751,"헬":7752,"헭":7753,"헮":7754,"헲":7755,"헳":7756,"헴":7757,"헵":7758,"헷":7759,"헸":7760,"헹":7761,"헺":7762,"헼":7763,"헽":7764,"헾":7765,"헿":7766,"혀":7767,"혁":7768,"혂":7769,"혃":7770,"현":7771,"혅":7772,"혆":7773,"혇":7774,"혈":7775,"혐":7776,"협":7777,"혓":7778,"혔":7779,"형":7780,"혖":7781,"혗":7782,"혘":7783,"혙":7784,"혚":7785,"혛":7786,"혜":7787,"혠":7788,"혤":7789,"혦":7790,"혬":7791,"혭":7792,"혯":7793,"혰":7794,"혱":7795,"혲":7796,"혴":7797,"혷":7798,"호":7799,"혹":7800,"혻":7801,"혼":7802,"혽":7803,"혾":7804,"혿":7805,"홀":7806,"홁":7807,"홂":7808,"홅":7809,"홇":7810,"홈":7811,"홉":7812,"홋":7813,"홍":7814,"홎":7815,"홏":7816,"홐":7817,"홑":7818,"홒":7819,"홓":7820,"화":7821,"확":7822,"홖":7823,"홗":7824,"환":7825,"홙":7826,"홚":7827,"홛":7828,"활":7829,"홝":7830,"홞":7831,"홟":7832,"홣":7833,"홤":7834,"홥":7835,"홧":7836,"홨":7837,"황":7838,"홪":7839,"홬":7840,"홭":7841,"홮":7842,"홯":7843,"홰":7844,"홱":7845,"홴":7846,"횁":7847,"횃":7848,"횄":7849,"횅":7850,"회":7851,"획":7852,"횐":7853,"횓":7854,"횔":7855,"횜":7856,"횝":7857,"횟":7858,"횡":7859,"횢":7860,"횤":7861,"횧":7862,"효":7863,"횩":7864,"횬":7865,"횯":7866,"횰":7867,"횸":7868,"횹":7869,"횻":7870,"횽":7871,"횾":7872,"훀":7873,"훁":7874,"훃":7875,"후":7876,"훅":7877,"훈":7878,"훉":7879,"훋":7880,"훌":7881,"훍":7882,"훎":7883,"훏":7884,"훑":7885,"훒":7886,"훓":7887,"훔":7888,"훕":7889,"훗":7890,"훘":7891,"훙":7892,"훚":7893,"훛":7894,"훜":7895,"훝":7896,"훞":7897,"훟":7898,"훠":7899,"훡":7900,"훣":7901,"훤":7902,"훨":7903,"훪":7904,"훬":7905,"훯":7906,"훰":7907,"훱":7908,"훳":7909,"훵":7910,"훻":7911,"훼":7912,"훽":7913,"휀":7914,"휄":7915,"휌":7916,"휍":7917,"휏":7918,"휑":7919,"휗":7920,"휘":7921,"휙":7922,"휜":7923,"휠":7924,"휨":7925,"휩":7926,"휫":7927,"휭":7928,"휲":7929,"휳":7930,"휴":7931,"휵":7932,"휸":7933,"휻":7934,"휼":7935,"흄":7936,"흅":7937,"흇":7938,"흉":7939,"흊":7940,"흋":7941,"흌":7942,"흍":7943,"흎":7944,"흏":7945,"흐":7946,"흑":7947,"흒":7948,"흓":7949,"흔":7950,"흕":7951,"흖":7952,"흗":7953,"흘":7954,"흙":7955,"흚":7956,"흛":7957,"흜":7958,"흝":7959,"흞":7960,"흟":7961,"흠":7962,"흡":7963,"흢":7964,"흣":7965,"흤":7966,"흥":7967,"흦":7968,"흧":7969,"흨":7970,"흩":7971,"흪":7972,"흫":7973,"희":7974,"흭":7975,"흰":7976,"흴":7977,"흼":7978,"흽":7979,"흿":7980,"힁":7981,"힂":7982,"힄":7983,"힇":7984,"히":7985,"힉":7986,"힌":7987,"힏":7988,"힐":7989,"힑":7990,"힒":7991,"힗":7992,"힘":7993,"힙":7994,"힛":7995,"힜":7996,"힝":7997,"힞":7998,"힟":7999,"힠":8000,"힡":8001,"힢":8002,"힣":8003,"％":8004,"##종":8005,"##필":8006,"##계":8007,"##에":8008,"##달":8009,"##해":8010,"##버":8011,"##렸":8012,"##다":8013,"##고":8014,"##운":8015,"##세":8016,"##상":8017,"##이":8018,"##란":8019,"##장":8020,"##8":8021,"##0":8022,"##추":8023,"##천":8024,"##사":8025,"##즈":8026,"##리":8027,"##슬":8028,"##스":8029,"##익":8030,"##제":8031,"##보":8032,"##교":8033,"##는":8034,"##무":8035,"##특":8036,"##까":8037,"##지":8038,"##낸":8039,"##주":8040,"##행":8041,"##라":8042,"##면":8043,"##서":8044,"##6":8045,"##5":8046,"##소":8047,"##가":8048,"##능":8049,"##물":8050,"##을":8051,"##하":8052,"##걸":8053,"##로":8054,"##요":8055,"##ㅋ":8056,"##먹":8057,"##으":8058,"##려":8059,"##휴":8060,"##와":8061,"##9":8062,"##월":8063,"##1":8064,"##2":8065,"##일":8066,"##국":8067,"##산":8068,"##수":8069,"##유":8070,"##취":8071,"##급":8072,"##데":8073,"##낮":8074,"##엔":8075,"##듯":8076,"##즘":8077,"##은":8078,"##었":8079,"##좋":8080,"##겠":8081,"##어":8082,"##엘":8083,"##b":8084,"##r":8085,"##t":8086,"##들":8087,"##여":8088,"##니":8089,"##더":8090,"##습":8091,"##크":8092,"##림":8093,"##등":8094,"##아":8095,"##돌":8096,"##래":8097,"##당":8098,"##연":8099,"##히":8100,"##통":8101,"##안":8102,"##전":8103,"##정":8104,"##책":8105,"##심":8106,"##의":8107,"##위":8108,"##던":8109,"##떤":8110,"##게":8111,"##한":8112,"##회":8113,"##용":8114,"##글":8115,"##티":8116,"##브":8117,"##시":8118,"##억":8119,"##만":8120,"##러":8121,"##오":8122,"##구":8123,"##두":8124,"##피":8125,"##a":8126,"##o":8127,"##l":8128,"##i":8129,"##e":8130,"##썹":8131,"##거":8132,"##술":8133,"##뇸":8134,"##그":8135,"##럼":8136,"##터":8137,"##3":8138,"##단":8139,"##슈":8140,"##문":8141,"##찍":8142,"##기":8143,"##도":8144,"##멍":8145,"##커":8146,"##트":8147,"##끄":8148,"##워":8149,"##할":8150,"##역":8151,"##대":8152,"##업":8153,"##간":8154,"##나":8155,"##마":8156,"##h":8157,"##자":8158,"##인":8159,"##굉":8160,"##질":8161,"##올":8162,"##모":8163,"##였":8164,"##식":8165,"##델":8166,"##d":8167,"##c":8168,"##f":8169,"##입":8170,"##섯":8171,"##녀":8172,"##눕":8173,"##혀":8174,"##윤":8175,"##군":8176,"##우":8177,"##람":8178,"##풍":8179,"##키":8180,"##조":8181,"##침":8182,"##금":8183,"##증":8184,"##생":8185,"##움":8186,"##큐":8187,"##담":8188,"##께":8189,"##g":8190,"##n":8191,"##렀":8192,"##싱":8193,"##갈":8194,"##토":8195,"##중":8196,"##손":8197,"##바":8198,"##닥":8199,"##항":8200,"##동":8201,"##랑":8202,"##셔":8203,"##년":8204,"##실":8205,"##같":8206,"##린":8207,"##카":8208,"##타":8209,"##부":8210,"##머":8211,"##맡":8212,"##묵":8213,"##테":8214,"##케":8215,"##왕":8216,"##경":8217,"##품":8218,"##견":8219,"##육":8220,"##격":8221,"##민":8222,"##젼":8223,"##존":8224,"##내":8225,"##꺼":8226,"##빨":8227,"##강":8228,"##렇":8229,"##반":8230,"##양":8231,"##배":8232,"##순":8233,"##규":8234,"##출":8235,"##ㄷ":8236,"##량":8237,"##성":8238,"##분":8239,"##7":8240,"##쓰":8241,"##겨":8242,"##져":8243,"##있":8244,"##쟁":8245,"##코":8246,"##프":8247,"##임":8248,"##너":8249,"##진":8250,"##애":8251,"##공":8252,"##후":8253,"##약":8254,"##저":8255,"##싶":8256,"##벅":8257,"##웠":8258,"##뿐":8259,"##4":8260,"##합":8261,"##ㄸ":8262,"##짜":8263,"##디":8264,"##캐":8265,"##드":8266,"##원":8267,"##각":8268,"##치":8269,"##했":8270,"##며":8271,"##미":8272,"##를":8273,"##k":8274,"##처":8275,"##루":8276,"##비":8277,"##귀":8278,"##긴":8279,"##닝":8280,"##딜":8281,"##락":8282,"##감":8283,"##방":8284,"##포":8285,"##팅":8286,"##둘":8287,"##박":8288,"##과":8289,"##죠":8290,"##립":8291,"##선":8292,"##환":8293,"##누":8294,"##틱":8295,"##작":8296,"##점":8297,"##예":8298,"##족":8299,"##레":8300,"##핑":8301,"##v":8302,"##르":8303,"##느":8304,"##셨":8305,"##든":8306,"##신":8307,"##남":8308,"##음":8309,"##발":8310,"##야":8311,"##되":8312,"##꼬":8313,"##p":8314,"##홈":8315,"##않":8316,"##칠":8317,"##싫":8318,"##눈":8319,"##펌":8320,"##때":8321,"##적":8322,"##형":8323,"##욕":8324,"##궁":8325,"##백":8326,"##았":8327,"##링":8328,"##삼":8329,"##절":8330,"##냥":8331,"##몫":8332,"##네":8333,"##충":8334,"##최":8335,"##징":8336,"##본":8337,"##매":8338,"##쥬":8339,"##떼":8340,"##욘":8341,"##빌":8342,"##딩":8343,"##째":8344,"##색":8345,"##앱":8346,"##센":8347,"##옆":8348,"##파":8349,"##명":8350,"##댁":8351,"##맞":8352,"##베":8353,"##밀":8354,"##컬":8355,"##개":8356,"##롭":8357,"##봄":8358,"##많":8359,"##롱":8360,"##컵":8361,"##줬":8362,"##u":8363,"##s":8364,"##송":8365,"##알":8366,"##늄":8367,"##길":8368,"##찰":8369,"##난":8370,"##속":8371,"##쌀":8372,"##뮤":8373,"##션":8374,"##칸":8375,"##폰":8376,"##볼":8377,"##쳐":8378,"##뱃":8379,"##짐":8380,"##콕":8381,"##막":8382,"##완":8383,"##언":8384,"##x":8385,"##웨":8386,"##덴":8387,"##률":8388,"##콘":8389,"##텐":8390,"##츠":8391,"##폐":8392,"##화":8393,"##쭤":8394,"##봤":8395,"##쿡":8396,"##탑":8397,"##릴":8398,"##건":8399,"##관":8400,"##련":8401,"##망":8402,"##님":8403,"##석":8404,"##낌":8405,"##친":8406,"##줄":8407,"##륵":8408,"##획":8409,"##퍼":8410,"##범":8411,"##렵":8412,"##혼":8413,"##협":8414,"##쌈":8415,"##플":8416,"##새":8417,"##띠":8418,"##체":8419,"##직":8420,"##펄":8421,"##것":8422,"##따":8423,"##료":8424,"##클":8425,"##y":8426,"##깍":8427,"##굴":8428,"##벌":8429,"##철":8430,"##힘":8431,"##잔":8432,"##차":8433,"##른":8434,"##랜":8435,"##독":8436,"##짝":8437,"##칙":8438,"##멜":8439,"##겁":8440,"##악":8441,"##뚫":8442,"##쿠":8443,"##왠":8444,"##활":8445,"##울":8446,"##복":8447,"##호":8448,"##잖":8449,"##m":8450,"##패":8451,"##뺏":8452,"##놈":8453,"##객":8454,"##편":8455,"##탕":8456,"##깨":8457,"##목":8458,"##즌":8459,"##왔":8460,"##봉":8461,"##흡":8462,"##켜":8463,"##w":8464,"##샤":8465,"##꺄":8466,"##현":8467,"##픔":8468,"##걍":8469,"##판":8470,"##쁘":8471,"##씨":8472,"##층":8473,"##향":8474,"##탈":8475,"##잇":8476,"##뜻":8477,"##좀":8478,"##채":8479,"##널":8480,"##될":8481,"##날":8482,"##얼":8483,"##찌":8484,"##봐":8485,"##얄":8486,"##살":8487,"##좌":8488,"##랐":8489,"##곧":8490,"##노":8491,"##번":8492,"##벼":8493,"##압":8494,"##섞":8495,"##퀴":8496,"##착":8497,"##륭":8498,"##륳":8499,"##켰":8500,"##캠":8501,"##집":8502,"##력":8503,"##롬":8504,"##칼":8505,"##싸":8506,"##척":8507,"##뀌":8508,"##ㅎ":8509,"##준":8510,"##륙":8511,"##응":8512,"##외":8513,"##험":8514,"##총":8515,"##확":8516,"##또":8517,"##겸":8518,"##영":8519,"##냈":8520,"##씻":8521,"##뿌":8522,"##검":8523,"##꼭":8524,"##놤":8525,"##쌩":8526,"##쇼":8527,"##없":8528,"##곤":8529,"##황":8530,"##병":8531,"##법":8532,"##불":8533,"##촉":8534,"##빵":8535,"##권":8536,"##퀸":8537,"##됐":8538,"##놀":8539,"##홍":8540,"##별":8541,"##벤":8542,"##앙":8543,"##된":8544,"##렌":8545,"##써":8546,"##쉬":8547,"##골":8548,"##팟":8549,"##램":8550,"##닉":8551,"##땀":8552,"##옷":8553,"##윗":8554,"##름":8555,"##팀":8556,"##랫":8557,"##밭":8558,"##재":8559,"##엡":8560,"##꼼":8561,"##잘":8562,"##잡":8563,"##말":8564,"##캡":8565,"##령":8566,"##블":8567,"##퓨":8568,"##썸":8569,"##택":8570,"##곳":8571,"##허":8572,"##함":8573,"##춤":8574,"##승":8575,"##몰":8576,"##큰":8577,"##z":8578,"##숙":8579,"##학":8580,"##쁜":8581,"##큼":8582,"##록":8583,"##킨":8584,"##릭":8585,"##돠":8586,"##헥":8587,"##참":8588,"##썻":8589,"##틀":8590,"##므":8591,"##팬":8592,"##메":8593,"##렴":8594,"##런":8595,"##쳤":8596,"##광":8597,"##툼":8598,"##평":8599,"##콤":8600,"##삭":8601,"##류":8602,"##쪄":8603,"##냉":8604,"##설":8605,"##균":8606,"##략":8607,"##켓":8608,"##창":8609,"##밥":8610,"##펴":8611,"##썩":8612,"##뉴":8613,"##잉":8614,"##갔":8615,"##곽":8616,"##텔":8617,"##옌":8618,"##푹":8619,"##암":8620,"##룩":8621,"##받":8622,"##갖":8623,"##헤":8624,"##긔":8625,"##떡":8626,"##죽":8627,"##벽":8628,"##접":8629,"##슐":8630,"##좁":8631,"##럽":8632,"##농":8633,"##욱":8634,"##팠":8635,"##슨":8636,"##념":8637,"##빙":8638,"##끼":8639,"##냄":8640,"##났":8641,"##액":8642,"##릉":8643,"##쪽":8644,"##표":8645,"##젤":8646,"##븐":8647,"##붓":8648,"##콜":8649,"##꼐":8650,"##칫":8651,"##솔":8652,"##론":8653,"##율":8654,"##깔":8655,"##맘":8656,"##템":8657,"##초":8658,"##샘":8659,"##청":8660,"##퇴":8661,"##챌":8662,"##맥":8663,"##밤":8664,"##컷":8665,"##끈":8666,"##뚱":8667,"##푸":8668,"##럭":8669,"##찐":8670,"##q":8671,"##답":8672,"##줘":8673,"##페":8674,"##맙":8675,"##먼":8676,"##온":8677,"##효":8678,"##뜨":8679,"##곡":8680,"##졌":8681,"##겟":8682,"##넣":8683,"##렁":8684,"##변":8685,"##흐":8686,"##측":8687,"##득":8688,"##럴":8689,"##ㅅ":8690,"##얌":8691,"##똑":8692,"##딱":8693,"##쟝":8694,"##넷":8695,"##츄":8696,"##걱":8697,"##봇":8698,"##쯔":8699,"##숨":8700,"##춘":8701,"##귤":8702,"##봣":8703,"##곰":8704,"##넛":8705,"##맵":8706,"##섭":8707,"##팩":8708,"##콩":8709,"##ㅈ":8710,"##ㄴ":8711,"##뷰":8712,"##꽃":8713,"##태":8714,"##컨":8715,"##얗":8716,"##튼":8717,"##끔":8718,"##극":8719,"##앞":8720,"##납":8721,"##켈":8722,"##틴":8723,"##빠":8724,"##밍":8725,"##흔":8726,"##킬":8727,"##맨":8728,"##툴":8729,"##룸":8730,"##픈":8731,"##슴":8732,"##넌":8733,"##돼":8734,"##맹":8735,"##열":8736,"##랭":8737,"##엄":8738,"##킷":8739,"##뭐":8740,"##즐":8741,"##놓":8742,"##컴":8743,"##늘":8744,"##폼":8745,"##왁":8746,"##눌":8747,"##밴":8748,"##혔":8749,"##깐":8750,"##햄":8751,"##녁":8752,"##숲":8753,"##랍":8754,"##핸":8755,"##댄":8756,"##탁":8757,"##빈":8758,"##샐":8759,"##촌":8760,"##멋":8761,"##칡":8762,"##빼":8763,"##캉":8764,"##탱":8765,"##셀":8766,"##렉":8767,"##삽":8768,"##랬":8769,"##쬬":8770,"##투":8771,"##펭":8772,"##귄":8773,"##샷":8774,"##ㅊ":8775,"##ㅍ":8776,"##ㅌ":8777,"##쿤":8778,"##쯤":8779,"##넘":8780,"##밑":8781,"##갑":8782,"##탄":8783,"##찾":8784,"##갤":8785,"##쳇":8786,"##흘":8787,"##칵":8788,"##샌":8789,"##팁":8790,"##덩":8791,"##켄":8792,"##쉽":8793,"##김":8794,"##맛":8795,"##짱":8796,"##끊":8797,"##쏘":8798,"##축":8799,"##붙":8800,"##덕":8801,"##꾸":8802,"##닷":8803,"##돈":8804,"##텅":8805,"##쩌":8806,"##읺":8807,"##ㄱ":8808,"##롤":8809,"##탠":8810,"##딤":8811,"##북":8812,"##ㅇ":8813,"##왜":8814,"##랙":8815,"##멧":8816,"##굿":8817,"##끓":8818,"##늬":8819,"##엑":8820,"##웃":8821,"##잌":8822,"##폴":8823,"##몽":8824,"##첨":8825,"##펠":8826,"##뜰":8827,"##쇄":8828,"##희":8829,"##꼈":8830,"##왑":8831,"##춰":8832,"##찬":8833,"##씩":8834,"##낙":8835,"##횽":8836,"##결":8837,"##킹":8838,"##겅":8839,"##챠":8840,"##냐":8841,"##윈":8842,"##줏":8843,"##릇":8844,"##톤":8845,"##셉":8846,"##염":8847,"##풀":8848,"##엉":8849,"##떠":8850,"##랴":8851,"##닌":8852,"##듣":8853,"##근":8854,"##뎌":8855,"##폭":8856,"##혹":8857,"##묻":8858,"##놨":8859,"##멸":8860,"##넉":8861,"##옹":8862,"##닭":8863,"##볶":8864,"##뇨":8865,"##젠":8866,"##빔":8867,"##껑":8868,"##옵":8869,"##못":8870,"##짓":8871,"##끗":8872,"##릿":8873,"##뎡":8874,"##댔":8875,"##숍":8876,"##쨔":8877,"##쟌":8878,"##숫":8879,"##옮":8880,"##겼":8881,"##례":8882,"##휠":8883,"##뗏":8884,"##넹":8885,"##껴":8886,"##겐":8887,"##엽":8888,"##죵":8889,"##뻐":8890,"##잼":8891,"##j":8892,"##랄":8893,"##괴":8894,"##깃":8895,"##샵":8896,"##콧":8897,"##룹":8898,"##갯":8899,"##픽":8900,"##닫":8901,"##엠":8902,"##챙":8903,"##렬":8904,"##녹":8905,"##뜯":8906,"##빛":8907,"##딸":8908,"##땐":8909,"##엇":8910,"##뒤":8911,"##땡":8912,"##텃":8913,"##깥":8914,"##쨌":8915,"##렷":8916,"##랩":8917,"##슷":8918,"##붐":8919,"##숱":8920,"##펑":8921,"##왱":8922,"##떻":8923,"##흰":8924,"##팔":8925,"##앀":8926,"##뽐":8927,"##뎅":8928,"##뤄":8929,"##찮":8930,"##뒀":8931,"##흑":8932,"##믹":8933,"##쎄":8934,"##녕":8935,"##캅":8936,"##끝":8937,"##쿨":8938,"##뤼":8939,"##쥐":8940,"##숩":8941,"##섬":8942,"##욧":8943,"##뱅":8944,"##밖":8945,"##웬":8946,"##뇌":8947,"##뻑":8948,"##옥":8949,"##싹":8950,"##뚝":8951,"##꽂":8952,"##숯":8953,"##볍":8954,"##꿈":8955,"##냅":8956,"##닼":8957,"##쫄":8958,"##벗":8959,"##뢰":8960,"##칩":8961,"##샀":8962,"##논":8963,"##쉐":8964,"##∼":8965,"##햇":8966,"##밌":8967,"##괄":8968,"##툭":8969,"##롯":8970,"##십":8971,"##켠":8972,"##닙":8973,"##솟":8974,"##숏":8975,"##읽":8976,"##숄":8977,"##뽁":8978,"##흉":8979,"##낀":8980,"##쿵":8981,"##쩔":8982,"##톡":8983,"##펙":8984,"##값":8985,"##헐":8986,"##멤":8987,"##튀":8988,"##털":8989,"##눔":8990,"##썼":8991,"##셥":8992,"##낚":8993,"##쓸":8994,"##낼":8995,"##룰":8996,"##몇":8997,"##졋":8998,"##눠":8999,"##몬":9000,"##꼴":9001,"##붕":9002,"##둥":9003,"##덮":9004,"##헹":9005,"##굾":9006,"##톰":9007,"##낡":9008,"##갓":9009,"##캘":9010,"##둔":9011,"##푼":9012,"##젓":9013,"##잠":9014,"##겔":9015,"##껜":9016,"##쿼":9017,"##꽝":9018,"##꺽":9019,"##똥":9020,"##꾼":9021,"##땅":9022,"##높":9023,"##믄":9024,"##넥":9025,"##앗":9026,"##뜸":9027,"##핵":9028,"##묶":9029,"##튜":9030,"##캭":9031,"##혜":9032,"##쌍":9033,"##뿡":9034,"##촬":9035,"##뽑":9036,"##셋":9037,"##즙":9038,"##엿":9039,"##돋":9040,"##샴":9041,"##쉰":9042,"##찔":9043,"##릎":9044,"##캣":9045,"##닢":9046,"##싼":9047,"##듬":9048,"##옴":9049,"##꿔":9050,"##욤":9051,"##쇠":9052,"##왼":9053,"##욥":9054,"##줫":9055,"##홀":9056,"##줍":9057,"##뒷":9058,"##융":9059,"##듀":9060,"##헨":9061,"##룡":9062,"##쭉":9063,"##텟":9064,"##짤":9065,"##둠":9066,"##캔":9067,"##뚜":9068,"##쉘":9069,"##슝":9070,"##섀":9071,"##빚":9072,"##펀":9073,"##턴":9074,"##헿":9075,"##쿄":9076,"##솜":9077,"##빕":9078,"##깅":9079,"##됨":9080,"##젝":9081,"##팡":9082,"##갬":9083,"##헌":9084,"##셈":9085,"##칭":9086,"##읍":9087,"##젊":9088,"##릅":9089,"##륜":9090,"##핀":9091,"##뱀":9092,"##힣":9093,"##힌":9094,"##뻔":9095,"##혁":9096,"##넓":9097,"##뼈":9098,"##촘":9099,"##엌":9100,"##늦":9101,"##컥":9102,"##텍":9103,"##굽":9104,"##섹":9105,"##ㅃ":9106,"##첼":9107,"##갹":9108,"##닐":9109,"##긋":9110,"##찢":9111,"##땜":9112,"##밸":9113,"##냠":9114,"##됴":9115,"##쎼":9116,"##ㅂ":9117,"##깝":9118,"##줌":9119,"##쬐":9120,"##퍈":9121,"##뽀":9122,"##댐":9123,"##뛰":9124,"##쪼":9125,"##얏":9126,"##묘":9127,"##훈":9128,"##뻣":9129,"##쓴":9130,"##샥":9131,"##룽":9132,"##벡":9133,"##깟":9134,"##괜":9135,"##펜":9136,"##렐":9137,"##앤":9138,"##잭":9139,"##꿀":9140,"##랗":9141,"##닦":9142,"##놔":9143,"##됍":9144,"##멕":9145,"##옛":9146,"##앉":9147,"##긍":9148,"##웜":9149,"##씀":9150,"##낭":9151,"##쥽":9152,"##웅":9153,"##봅":9154,"##혈":9155,"##쪾":9156,"##갱":9157,"##쩍":9158,"##깜":9159,"##퉤":9160,"##셜":9161,"##됬":9162,"##됩":9163,"##몸":9164,"##헉":9165,"##넨":9166,"##넬":9167,"##씰":9168,"##숭":9169,"##썰":9170,"##씹":9171,"##샛":9172,"##뮨":9173,"##퓌":9174,"##엣":9175,"##잎":9176,"##걷":9177,"##펨":9178,"##펫":9179,"##낄":9180,"##욬":9181,"##풋":9182,"##빳":9183,"##앰":9184,"##퓸":9185,"##늙":9186,"##찜":9187,"##잣":9188,"##듐":9189,"##깊":9190,"##쭘":9191,"##돗":9192,"##싯":9193,"##쨩":9194,"##뜩":9195,"##덜":9196,"##듁":9197,"##롸":9198,"##쨍":9199,"##끌":9200,"##훨":9201,"##씬":9202,"##힐":9203,"##짧":9204,"##긁":9205,"##윽":9206,"##멀":9207,"##딛":9208,"##삿":9209,"##궈":9210,"##뼌":9211,"##휘":9212,"##떨":9213,"##벳":9214,"##겹":9215,"##둑":9216,"##뿜":9217,"##캬":9218,"##벨":9219,"##킁":9220,"##엥":9221,"##쌤":9222,"##꾀":9223,"##괌":9224,"##킴":9225,"##웰":9226,"##핏":9227,"##렛":9228,"##뮬":9229,"##턱":9230,"##흠":9231,"##밋":9232,"##쟉":9233,"##및":9234,"##텀":9235,"##ㄹ":9236,"##뎍":9237,"##펐":9238,"##듭":9239,"##걀":9240,"##짬":9241,"##뽕":9242,"##뇽":9243,"##겉":9244,"##켤":9245,"##덤":9246,"##뉘":9247,"##튕":9248,"##헬":9249,"##졸":9250,"##휀":9251,"##굼":9252,"##녜":9253,"##톈":9254,"##첩":9255,"##쟈":9256,"##탐":9257,"##탭":9258,"##렘":9259,"##겄":9260,"##긱":9261,"##됫":9262,"##팽":9263,"##냑":9264,"##텝":9265,"##덧":9266,"##삐":9267,"##랼":9268,"##녔":9269,"##껀":9270,"##쌓":9271,"##윙":9272,"##댕":9273,"##멘":9274,"##팜":9275,"##륨":9276,"##헀":9277,"##뒈":9278,"##퀄":9279,"##굳":9280,"##밟":9281,"##솨":9282,"##쫀":9283,"##껏":9284,"##ㅁ":9285,"##꿍":9286,"##팎":9287,"##꽁":9288,"##댈":9289,"##탓":9290,"##톨":9291,"##곱":9292,"##씌":9293,"##탯":9294,"##썬":9295,"##쮸":9296,"##핫":9297,"##줠":9298,"##앵":9299,"##숑":9300,"##탬":9301,"##빅":9302,"##퐁":9303,"##밝":9304,"##뜬":9305,"##톱":9306,"##딘":9307,"##퀘":9308,"##룻":9309,"##딥":9310,"##훼":9311,"##씽":9312,"##랠":9313,"##섰":9314,"##뎈":9315,"##뿍":9316,"##얘":9317,"##쭈":9318,"##틈":9319,"##튬":9320,"##딴":9321,"##겤":9322,"##믿":9323,"##젖":9324,"##닛":9325,"##뱉":9326,"##뚤":9327,"##옳":9328,"##윳":9329,"##흥":9330,"##빗":9331,"##쥑":9332,"##쉼":9333,"##첫":9334,"##믜":9335,"##큘":9336,"##팰":9337,"##낫":9338,"##겆":9339,"##옻":9340,"##잊":9341,"##뀰":9342,"##솥":9343,"##귈":9344,"##긿":9345,"##꽉":9346,"##넼":9347,"##뫄":9348,"##쪙":9349,"##뽜":9350,"##츤":9351,"##겊":9352,"##빡":9353,"##뭔":9354,"##꿰":9355,"##롥":9356,"##ㄺ":9357,"##헭":9358,"##죄":9359,"##윌":9360,"##틋":9361,"##닮":9362,"##촛":9363,"##젛":9364,"##슥":9365,"##붉":9366,"##떫":9367,"##댜":9368,"##팍":9369,"##욯":9370,"##쨋":9371,"##얇":9372,"##뷸":9373,"##쑴":9374,"##궐":9375,"##휩":9376,"##퉁":9377,"##댓":9378,"##몀":9379,"##돔":9380,"##쉴":9381,"##킥":9382,"##갼":9383,"##밪":9384,"##팝":9385,"##둡":9386,"##룬":9387,"##퀵":9388,"##뜽":9389,"##뻤":9390,"##쨜":9391,"##뇰":9392,"##뀩":9393,"##옇":9394,"##맑":9395,"##ㅉ":9396,"##멈":9397,"##읏":9398,"##깻":9399,"##횟":9400,"##쩐":9401,"##웍":9402,"##슘":9403,"##꽈":9404,"##뻥":9405,"##뷔":9406,"##얀":9407,"##쏟":9408,"##쩨":9409,"##쾌":9410,"##밗":9411,"##햐":9412,"##눅":9413,"##됏":9414,"##뭘":9415,"##뜀":9416,"##싣":9417,"##껐":9418,"##둣":9419,"##깎":9420,"##짹":9421,"##딕":9422,"##씁":9423,"##둬":9424,"##꾹":9425,"##쾰":9426,"##쁨":9427,"##꼇":9428,"##셰":9429,"##굵":9430,"##뎃":9431,"##즉":9432,"##흙":9433,"##겡":9434,"##쩡":9435,"##삘":9436,"##뮈":9437,"##놧":9438,"##꼌":9439,"##셸":9440,"##웹":9441,"##꽥":9442,"##뎀":9443,"##갘":9444,"##곺":9445,"##샨":9446,"##뻬":9447,"##잃":9448,"##밧":9449,"##떄":9450,"##즁":9451,"##껍":9452,"##샹":9453,"##홓":9454,"##땔":9455,"##즤":9456,"##볐":9457,"##훅":9458,"##놋":9459,"##챕":9460,"##셩":9461,"##짠":9462,"##덱":9463,"##웁":9464,"##볕":9465,"##앍":9466,"##챔":9467,"##빻":9468,"##솝":9469,"##잽":9470,"##곶":9471,"##낯":9472,"##곸":9473,"##옄":9474,"##켸":9475,"##죤":9476,"##뎁":9477,"##묽":9478,"##꼽":9479,"##쓔":9480,"##긎":9481,"##괭":9482,"##셑":9483,"##튤":9484,"##ㄻ":9485,"##헛":9486,"##귯":9487,"##갉":9488,"##깁":9489,"##닳":9490,"##뗌":9491,"##껌":9492,"##삶":9493,"##굶":9494,"##띵":9495,"##쫌":9496,"##핍":9497,"##앋":9498,"##랏":9499,"##쑥":9500,"##춥":9501,"##탔":9502,"##닿":9503,"##샬":9504,"##텡":9505,"##쁠":9506,"##틸":9507,"##뺴":9508,"##휜":9509,"##껄":9510,"##젯":9511,"##쥔":9512,"##짖":9513,"##뺐":9514,"##춧":9515,"##힙":9516,"##힑":9517,"##힝":9518,"##췌":9519,"##짘":9520,"##맷":9521,"##혐":9522,"##믈":9523,"##튠":9524,"##낱":9525,"##캄":9526,"##앨":9527,"##횡":9528,"##겪":9529,"##썯":9530,"##욜":9531,"##쵸":9532,"##솎":9533,"##뫃":9534,"##좔":9535,"##똬":9536,"##쏜":9537,"##찼":9538,"##뿅":9539,"##듈":9540,"##빴":9541,"##늠":9542,"##흤":9543,"##얹":9544,"##꿩":9545,"##춫":9546,"##얾":9547,"##핌":9548,"##턀":9549,"##퀼":9550,"##갠":9551,"##찝":9552,"##릐":9553,"##늡":9554,"##뒹":9555,"##렙":9556,"##췄":9557,"##꺅":9558,"##뭇":9559,"##엾":9560,"##헣":9561,"##릏":9562,"##뭄":9563,"##뀨":9564,"##깠":9565,"##땰":9566,"##륄":9567,"##왈":9568,"##쪘":9569,"##맺":9570,"##꽤":9571,"##쀼":9572,"##탆":9573,"##뚠":9574,"##폈":9575,"##쁩":9576,"##돟":9577,"##탤":9578,"##깈":9579,"##뮥":9580,"##첸":9581,"##훌":9582,"##쨰":9583,"##퍄":9584,"##쑤":9585,"##밉":9586,"##팻":9587,"##갰":9588,"##흣":9589,"##덥":9590,"##꿨":9591,"##ㅆ":9592,"##옶":9593,"##겜":9594,"##킼":9595,"##뿔":9596,"##쏩":9597,"##챱":9598,"##햅":9599,"##뾰":9600,"##퓔":9601,"##쐬":9602,"##뵙":9603,"##뗄":9604,"##땨":9605,"##짚":9606,"##쫠":9607,"##홋":9608,"##뺀":9609,"##먐":9610,"##펍":9611,"##뻘":9612,"##댱":9613,"##앓":9614,"##엤":9615,"##샜":9616,"##찻":9617,"##햿":9618,"##쒸":9619,"##먀":9620,"##찡":9621,"##꼿":9622,"##샅":9623,"##늗":9624,"##쉇":9625,"##깡":9626,"##쐐":9627,"##뗴":9628,"##쎈":9629,"##맴":9630,"##푀":9631,"##팥":9632,"##쌔":9633,"##헸":9634,"##쭐":9635,"##냇":9636,"##쇽":9637,"##킵":9638,"##뭉":9639,"##믇":9640,"##쿱":9641,"##늑":9642,"##셌":9643,"##컸":9644,"##믓":9645,"##쭙":9646,"##엨":9647,"##쏠":9648,"##옐":9649,"##쑵":9650,"##찹":9651,"##곁":9652,"##잤":9653,"##몪":9654,"##혓":9655,"##휄":9656,"##갸":9657,"##쌋":9658,"##짇":9659,"##숴":9660,"##얕":9661,"##짯":9662,"##돕":9663,"##씅":9664,"##낞":9665,"##홑":9666,"##녘":9667,"##왓":9668,"##댑":9669,"##낵":9670,"##콰":9671,"##삑":9672,"##웡":9673,"##섴":9674,"##깽":9675,"##넴":9676,"##툰":9677,"##슾":9678,"##갛":9679,"##넵":9680,"##렝":9681,"##벙":9682,"##멩":9683,"##훟":9684,"##뤠":9685,"##숟":9686,"##폿":9687,"##쫑":9688,"##벵":9689,"##탉":9690,"##햌":9691,"##헝":9692,"##벱":9693,"##팸":9694,"##딧":9695,"##퀏":9696,"##똡":9697,"##쫓":9698,"##킅":9699,"##쏙":9700,"##녠":9701,"##밙":9702,"##넝":9703,"##몹":9704,"##긓":9705,"##쓲":9706,"##슁":9707,"##쉨":9708,"##픠":9709,"##쫴":9710,"##퍽":9711,"##솬":9712,"##퀀":9713,"##챤":9714,"##돨":9715,"##뇬":9716,"##쥰":9717,"##쏭":9718,"##슙":9719,"##펩":9720,"##컹":9721,"##믐":9722,"##뭅":9723,"##팤":9724,"##눓":9725,"##핥":9726,"##섐":9727,"##챈":9728,"##슉":9729,"##빤":9730,"##켯":9731,"##푠":9732,"##홉":9733,"##깢":9734,"##럿":9735,"##셧":9736,"##뎄":9737,"##낳":9738,"##텁":9739,"##쩜":9740,"##쳔":9741,"##볘":9742,"##띨":9743,"##웟":9744,"##돵":9745,"##핳":9746,"##텨":9747,"##벚":9748,"##샸":9749,"##븬":9750,"##쌕":9751,"##훗":9752,"##샾":9753,"##횓":9754,"##쉑":9755,"##쫙":9756,"##흫":9757,"##븍":9758,"##힛":9759,"##헷":9760,"##꿉":9761,"##삥":9762,"##굥":9763,"##괸":9764,"##횐":9765,"##묜":9766,"##쭌":9767,"##헙":9768,"##팦":9769,"##썽":9770,"##촤":9771,"##띄":9772,"##숀":9773,"##윕":9774,"##붗":9775,"##퐄":9776,"##냔":9777,"##쳄":9778,"##늩":9779,"##얻":9780,"##쫃":9781,"##뺄":9782,"##툥":9783,"##먿":9784,"##팃":9785,"##뜌":9786,"##뱈":9787,"##쎌":9788,"##딪":9789,"##랲":9790,"##댝":9791,"##턷":9792,"##쨈":9793,"##윔":9794,"##뗘":9795,"##턓":9796,"##캥":9797,"##엊":9798,"##틍":9799,"##땈":9800,"##뾱":9801,"##뱔":9802,"##둉":9803,"##앴":9804,"##풒":9805,"##긑":9806,"##멱":9807,"##엷":9808,"##핬":9809,"##퇄":9810,"##렂":9811,"##뜹":9812,"##셍":9813,"##갇":9814,"##짭":9815,"##묭":9816,"##뤘":9817,"##뮐":9818,"##땩":9819,"##밈":9820,"##뵵":9821,"##퍅":9822,"##렫":9823,"##갭":9824,"##컫":9825,"##핮":9826,"##챘":9827,"##핺":9828,"##깉":9829,"##붑":9830,"##굣":9831,"##먄":9832,"##졘":9833,"##넙":9834,"##읭":9835,"##괘":9836,"##멨":9837,"##낰":9838,"##쟀":9839,"##쭛":9840,"##맣":9841,"##풰":9842,"##뵤":9843,"##츨":9844,"##떢":9845,"##콥":9846,"##싀":9847,"##젉":9848,"##첟":9849,"##큅":9850,"##쓱":9851,"##쿰":9852,"##떮":9853,"##몈":9854,"##쫍":9855,"##닺":9856,"##빰":9857,"##큠":9858,"##즇":9859,"##슺":9860,"##븝":9861,"##늍":9862,"##죻":9863,"##ㄲ":9864,"##맟":9865,"##픋":9866,"##뵈":9867,"##듨":9868,"##끽":9869,"##쟤":9870,"##궛":9871,"##픜":9872,"##챀":9873,"##홰":9874,"##듦":9875,"##쑝":9876,"##ㄳ":9877,"##톳":9878,"##땁":9879,"##퇌":9880,"##왤":9881,"##뉨":9882,"##괏":9883,"##껭":9884,"##텼":9885,"##훠":9886,"##눴":9887,"##얔":9888,"##랔":9889,"##궤":9890,"##씐":9891,"##눗":9892,"##홥":9893,"##폄":9894,"##쌜":9895,"##떵":9896,"##꺾":9897,"##쥴":9898,"##킈":9899,"##뭏":9900,"##큭":9901,"##껫":9902,"##씸":9903,"##썅":9904,"##짛":9905,"##힉":9906,"##쌉":9907,"##젱":9908,"##덛":9909,"##쮜":9910,"##귿":9911,"##웻":9912,"##츌":9913,"##좆":9914,"##핰":9915,"##햡":9916,"##뗵":9917,"##츰":9918,"##뎟":9919,"##씯":9920,"##뚬":9921,"##캇":9922,"##뀐":9923,"##썪":9924,"##뢍":9925,"##놉":9926,"##햏":9927,"##륿":9928,"##퍀":9929,"##똘":9930,"##섶":9931,"##궃":9932,"##짙":9933,"##쨘":9934,"##콸":9935,"##륹":9936,"##촐":9937,"##땍":9938,"##띾":9939,"##볓":9940,"##돜":9941,"##췟":9942,"##끙":9943,"##눼":9944,"##뱆":9945,"##떈":9946,"##쒀":9947,"##씼":9948,"##쌌":9949,"##렼":9950,"##훔":9951,"##꼰":9952,"##떴":9953,"##퓰":9954,"##숌":9955,"##듕":9956,"##튭":9957,"##곈":9958,"##윸":9959,"##ㅀ":9960,"##멶":9961,"##짗":9962,"##뀔":9963,"##윷":9964,"##붇":9965,"##섟":9966,"##읔":9967,"##몌":9968,"##쏴":9969,"##줔":9970,"##켑":9971,"##뱌":9972,"##랸":9973,"##넒":9974,"##쐈":9975,"##뤽":9976,"##큽":9977,"##늉":9978,"##엒":9979,"##좇":9980,"##쳬":9981,"##읎":9982,"##쵹":9983,"##믾":9984,"##얐":9985,"##핡":9986,"##낑":9987,"##쾅":9988,"##눞":9989,"##홧":9990,"##궜":9991,"##훙":9992,"##낍":9993,"##윰":9994,"##쥥":9995,"##둿":9996,"##눙":9997,"##듶":9998,"##쁀":9999,"##쾡":10000,"##늼":10001,"##죔":10002,"##듹":10003,"##곗":10004,"##햤":10005,"##뽰":10006,"##뚀":10007,"##밨":10008,"##ㄿ":10009,"##랃":10010,"##낏":10011,"##댯":10012,"##앟":10013,"##캿":10014,"##깬":10015,"##럖":10016,"##쉥":10017,"##봬":10018,"##촥":10019,"##읗":10020,"##맬":10021,"##퐝":10022,"##얜":10023,"##욮":10024,"##킄":10025,"##춍":10026,"##엮":10027,"##톼":10028,"##삔":10029,"##듑":10030,"##몐":10031,"##닠":10032,"##쟎":10033,"##휨":10034,"##듲":10035,"##옒":10036,"##꺟":10037,"##덟":10038,"##짦":10039,"##똔":10040,"##뙇":10041,"##뽈":10042,"##뚯":10043,"##뭩":10044,"##뭬":10045,"##엍":10046,"##뻗":10047,"##쟠":10048,"##쥠":10049,"##맠":10050,"##츈":10051,"##롄":10052,"##띈":10053,"##펼":10054,"##쳑":10055,"##옿":10056,"##넋":10057,"##븀":10058,"##됙":10059,"##훤":10060,"##싄":10061,"##곘":10062,"##렃":10063,"##졔":10064,"##칰":10065,"##얍":10066,"##듴":10067,"##쏫":10068,"##솓":10069,"##쥤":10070,"##싺":10071,"##먘":10072,"##슭":10073,"##궄":10074,"##잦":10075,"##깄":10076,"##쑬":10077,"##겧":10078,"##쌰":10079,"##졍":10080,"##핼":10081,"##먜":10082,"##슌":10083,"##붹":10084,"##핟":10085,"##횔":10086,"##엏":10087,"##엎":10088,"##롴":10089,"##좃":10090,"##햬":10091,"##껰":10092,"##쫛":10093,"##잨":10094,"##뮴":10095,"##펏":10096,"##홛":10097,"##홙":10098,"##죱":10099,"##땟":10100,"##쉣":10101,"##믕":10102,"##떙":10103,"##쩝":10104,"##볏":10105,"##춈":10106,"##풱":10107,"##뀜":10108,"##앜":10109,"##슼":10110,"##솄":10111,"##녺":10112,"##숮":10113,"##뤗":10114,"##돤":10115,"##젬":10116,"##첵":10117,"##콴":10118,"##쉔":10119,"##닏":10120,"##룝":10121,"##뛸":10122,"##즠":10123,"##슛":10124,"##빽":10125,"##몄":10126,"##쭁":10127,"##뗐":10128,"##맸":10129,"##켐":10130,"##휭":10131,"##앚":10132,"##풉":10133,"##곪":10134,"##굠":10135,"##왘":10136,"##뻈":10137,"##켁":10138,"##괞":10139,"##뺑":10140,"##띤":10141,"##탸":10142,"##큨":10143,"##폽":10144,"##쪗":10145,"##휙":10146,"##댣":10147,"##잴":10148,"##셕":10149,"##젷":10150,"##챦":10151,"##뫀":10152,"##끠":10153,"##묑":10154,"##앎":10155,"##뙤":10156,"##곜":10157,"##떳":10158,"##끕":10159,"##촵":10160,"##핖":10161,"##갗":10162,"##큔":10163,"##빱":10164,"##컻":10165,"##닽":10166,"##껨":10167,"##맄":10168,"##룜":10169,"##촣":10170,"##읻":10171,"##벞":10172,"##뗑":10173,"##틑":10174,"##찿":10175,"##귶":10176,"##귝":10177,"##퓩":10178,"##뽠":10179,"##빹":10180,"##욌":10181,"##곻":10182,"##챂":10183,"##뇹":10184,"##윅":10185,"##팧":10186,"##욭":10187,"##듇":10188,"##텆":10189,"##뵛":10190,"##깸":10191,"##픕":10192,"##늣":10193,"##댭":10194,"##젹":10195,"##졒":10196,"##셤":10197,"##봠":10198,"##킫":10199,"##긩":10200,"##툳":10201,"##떽":10202,"##챻":10203,"##챟":10204,"##챞":10205,"##쳘":10206,"##잏":10207,"##땠":10208,"##짼":10209,"##캌":10210,"##롷":10211,"##쳥":10212,"##ㄶ":10213,"##덬":10214,"##먕":10215,"##읕":10216,"##땃":10217,"##뷘":10218,"##겋":10219,"##웽":10220,"##삳":10221,"##뉜":10222,"##옸":10223,"##빋":10224,"##뚸":10225,"##밐":10226,"##첞":10227,"##뤈":10228,"##쌨":10229,"##귭":10230,"##맂":10231,"##햔":10232,"##줒":10233,"##묙":10234,"##츳":10235,"##젔":10236,"##얽":10237,"##샞":10238,"##쯸":10239,"##멵":10240,"##빧":10241,"##얶":10242,"##썜":10243,"##툽":10244,"##좦":10245,"##쎅":10246,"##싷":10247,"##흩":10248,"##샇":10249,"##뽄":10250,"##텦":10251,"##좡":10252,"##뱄":10253,"##홱":10254,"##옅":10255,"##쬰":10256,"##챡":10257,"##꿇":10258,"##챃":10259,"##걋":10260,"##볌":10261,"##텬":10262,"##뭍":10263,"##쫒":10264,"##깤":10265,"##씈":10266,"##됄":10267,"##둗":10268,"##옙":10269,"##꿋":10270,"##쫗":10271,"##꿧":10272,"##돛":10273,"##뼛":10274,"##윹":10275,"##좱":10276,"##낪":10277,"##뼘":10278,"##뉼":10279,"##웩":10280,"##갚":10281,"##넜":10282,"##솅":10283,"##븥":10284,"##쳣":10285,"##옫":10286,"##읊":10287,"##팋":10288,"##앸":10289,"##쵀":10290,"##쭝":10291,"##넫":10292,"##췬":10293,"##엙":10294,"##볻":10295,"##튿":10296,"##쏵":10297,"##쑹":10298,"##ㄵ":10299,"##읉":10300,"##숖":10301,"##켬":10302,"##셒":10303,"##똗":10304,"##긜":10305,"##겷":10306,"##쎔":10307,"##컾":10308,"##쎠":10309,"##쓋":10310,"##읷":10311,"##슫":10312,"##뉸":10313,"##렄":10314,"##냣":10315,"##튈":10316,"##롹":10317,"##밯":10318,"##흨":10319,"##줈":10320,"##팹":10321,"##죸":10322,"##틐":10323,"##겝":10324,"##롼":10325,"##앳":10326,"##읶":10327,"##퉬":10328,"##츕":10329,"##듵":10330,"##땝":10331,"##뚕":10332,"##뱡":10333,"##끛":10334,"##럈":10335,"##겻":10336,"##뙈":10337,"##웆":10338,"##햠":10339,"##넸":10340,"##휑":10341,"##괍":10342,"##퉈":10343,"##뎆":10344,"##쪌":10345,"##맜":10346,"##덯":10347,"##쎗":10348,"##쫜":10349,"##낲":10350,"##졷":10351,"##돚":10352,"##붖":10353,"##똭":10354,"##쒼":10355,"##툑":10356,"##ㅄ":10357,"##옂":10358,"##쿙":10359,"##뺨":10360,"##즹":10361,"##멓":10362,"##헞":10363,"##듸":10364,"##푯":10365,"##쟛":10366,"##밎":10367,"##틔":10368,"##곃":10369,"##짌":10370,"##읨":10371,"##냌":10372,"##얷":10373,"##읃":10374,"##싑":10375,"##끚":10376,"##왛":10377,"##맀":10378,"##쥉":10379,"##솼":10380,"##헴":10381,"##뮌":10382,"##컘":10383,"##깹":10384,"##맏":10385,"##욚":10386,"##쥼":10387,"##짊":10388,"##큡":10389,"##삮":10390,"##똣":10391,"##짅":10392,"##잫":10393,"##샙":10394,"##짋":10395,"##랮":10396,"##쌱":10397,"##삗":10398,"##꺠":10399,"##쿸":10400,"##쿳":10401,"##벰":10402,"##흗":10403,"##츅":10404,"##짢":10405,"##옺":10406,"##뗸":10407,"##귓":10408,"##겍":10409,"##싲":10410,"##웧":10411,"##욝":10412,"##먁":10413,"##롰":10414,"##튄":10415,"##눤":10416,"##뎬":10417,"##욛":10418,"##봨":10419,"##똴":10420,"##륑":10421,"##뫅":10422,"##뒨":10423,"##둩":10424,"##쫘":10425,"##랻":10426,"##녓":10427,"##쐰":10428,"##롓":10429,"##뵨":10430,"##뫼":10431,"##멬":10432,"##줗":10433,"##걔":10434,"##븟":10435,"##쨥":10436,"##뷴":10437,"##횹":10438,"##켙":10439,"##헠":10440,"##넚":10441,"##엫":10442,"##댉":10443,"##섁":10444,"##웤":10445,"##챨":10446,"##횬":10447,"##릌":10448,"##쉪":10449,"##늪":10450,"##렜":10451,"##펺":10452,"##퐈":10453,"##쀍":10454,"##딨":10455,"##닜":10456,"##츦":10457,"##춴":10458,"##놰":10459,"##퐉":10460,"##뒬":10461,"##햊":10462,"##궅":10463,"##벶":10464,"##뵜":10465,"##즣":10466,"##땋":10467,"##쏨":10468,"##렠":10469,"##뺙":10470,"##깓":10471,"##쉡":10472,"##럐":10473,"##뭌":10474,"##귱":10475,"##쉒":10476,"##쒜":10477,"##쨕":10478,"##잿":10479,"##쯱":10480,"##컄":10481,"##핶":10482,"##찎":10483,"##죙":10484,"##쟣":10485,"##됵":10486,"##쵼":10487,"##첳":10488,"##쇳":10489,"##굑":10490,"##뱨":10491,"##룔":10492,"##랖":10493,"##쥣":10494,"##좊":10495,"##좭":10496,"##텄":10497,"##렿":10498,"##럅":10499,"##쯈":10500,"##뎋":10501,"##귣":10502,"##싰":10503,"##퀠":10504,"##벟":10505,"##멥":10506,"##븡":10507,"##빝":10508,"##왝":10509,"##잗":10510,"##멎":10511,"##즛":10512,"##앶":10513,"##싳":10514,"##엧":10515,"##꿎":10516,"##놥":10517,"##뚭":10518,"##힜":10519,"##듼":10520,"##랰":10521,"##꼣":10522,"##솤":10523,"##휍":10524,"##쑨":10525,"##뒇":10526,"##붘":10527,"##땽":10528,"##쵝":10529,"##슽":10530,"##눀":10531,"##댠":10532,"##샏":10533,"##푿":10534,"##졓":10535,"##춉":10536,"##궂":10537,"##븨":10538,"##톌":10539,"##츛":10540,"##늎":10541,"##컅":10542,"##긒":10543,"##엪":10544,"##쩄":10545,"##큣":10546,"##찅":10547,"##뤀":10548,"##쑈":10549,"##럲":10550,"##맆":10551,"##셓":10552,"##쬡":10553,"##깩":10554,"##멊":10555,"##봡":10556,"##뎐":10557,"##뭣":10558,"##멛":10559,"##줂":10560,"##줃":10561,"##깆":10562,"##졎":10563,"##갵":10564,"##뱍":10565,"##잰":10566,"##됒":10567,"##얃":10568,"##툐":10569,"##냨":10570,"##곕":10571,"##싕":10572,"##닻":10573,"##봥":10574,"##벉":10575,"##큄":10576,"##륰":10577,"##븜":10578,"##샂":10579,"##랕":10580,"##풂":10581,"##섲":10582,"##휼":10583,"##흏":10584,"##픙":10585,"##쎴":10586,"##푱":10587,"##킺":10588,"##뽝":10589,"##쁙":10590,"##늕":10591,"##씃":10592,"##큥":10593,"##휸":10594,"##읙":10595,"##줭":10596,"##텥":10597,"##갲":10598,"##뿟":10599,"##딙":10600,"##켔":10601,"##쿜":10602,"##죳":10603,"##겯":10604,"##껼":10605,"##궇":10606,"##눟":10607,"##읋":10608,"##켱":10609,"##혠":10610,"##셴":10611,"##앝":10612,"##퓽":10613,"##앺":10614,"##ㄽ":10615,"##씜":10616,"##퐨":10617,"##촨":10618,"##뺭":10619,"##쯰":10620,"##읜":10621,"##쉿":10622,"##쐴":10623,"##빘":10624,"##쓩":10625,"##읾":10626,"##싞":10627,"##튝":10628,"##녑":10629,"##헵":10630,"##젋":10631,"##뼉":10632,"##콱":10633,"##괔":10634,"##탹":10635,"##떰":10636,"##겎":10637,"##봘":10638,"##쉭":10639,"##멉":10640,"##흇":10641,"##푷":10642,"##혛":10643,"##낔":10644,"##틃":10645,"##꺗":10646,"##젭":10647,"##돸":10648,"##훽":10649,"##깧":10650,"##끅":10651,"##떺":10652,"##귐":10653,"##륏":10654,"##힗":10655,"##옝":10656,"##몟":10657,"##곯":10658,"##겒":10659,"##삠":10660,"##싴":10661,"##늨":10662,"##웉":10663,"##뱁":10664,"##붸":10665,"##핝":10666,"##깣":10667,"##햑":10668,"##긷":10669,"##첬":10670,"##팈":10671,"##갿":10672,"##됭":10673,"##쪵":10674,"##쯥":10675,"##럳":10676,"##벖":10677,"##윾":10678,"##줴":10679,"##앐":10680,"##텧":10681,"##탙":10682,"##캤":10683,"##뇩":10684,"##뱐":10685,"##긻":10686,"##땬":10687,"##륀":10688,"##죴":10689,"##즢":10690,"##셆":10691,"##쨀":10692,"##켭":10693,"##붜":10694,"##욪":10695,"##퓡":10696,"##늓":10697,"##햫":10698,"##쥘":10699,"##듓":10700,"##섷":10701,"##헁":10702,"##붂":10703,"##쎃":10704,"##꼍":10705,"##딫":10706,"##왃":10707,"##넁":10708,"##쓤":10709,"##욖":10710,"##듧":10711,"##웕":10712,"##얺":10713,"##깰":10714,"##뭎":10715,"##겈":10716,"##쳡":10717,"##벋":10718,"##읈":10719,"##핛":10720,"##뿨":10721,"##짰":10722,"##귗":10723,"##쫭":10724,"##ㄾ":10725,"##켝":10726,"##넏":10727,"##덷":10728,"##봏":10729,"##쫩":10730,"##훕":10731,"##윻":10732,"##꺀":10733,"##홤":10734,"##뢈":10735,"##쨐":10736,"##닸":10737,"##댘":10738,"##쾀":10739,"##즨":10740,"##묺":10741,"##륌":10742,"##쁍":10743,"##헺":10744,"##텽":10745,"##럔":10746,"##웦":10747,"##퉅":10748,"##뷜":10749,"##뵐":10750,"##뉍":10751,"##텈":10752,"##촏":10753,"##밓":10754,"##얨":10755,"##퓹":10756,"##켘":10757,"##핓":10758,"##쳉":10759,"##챗":10760,"##폇":10761,"##걨":10762,"##얖":10763,"##싿":10764,"##귕":10765,"##솁":10766,"##뎠":10767,"##앧":10768,"##곷":10769,"##홬":10770,"##꽅":10771,"##잋":10772,"##쨉":10773,"##텊":10774,"##둻":10775,"##줓":10776,"##댸":10777,"##횸":10778,"##씟":10779,"##뺵":10780,"##뿁":10781,"##졐":10782,"##젴":10783,"##윺":10784,"##픂":10785,"##젇":10786,"##꿏":10787,"##몁":10788,"##딲":10789,"##툔":10790,"##퀐":10791,"##륩":10792,"##왐":10793,"##텯":10794,"##띡":10795,"##낧":10796,"##푤":10797,"##밁":10798,"##홇":10799,"##뷁":10800,"##땄":10801,"##튐":10802,"##좜":10803,"##츼":10804,"##됌":10805,"##뺌":10806,"##촙":10807,"##킽":10808,"##륲":10809,"##흄":10810,"##뾫":10811,"##굯":10812,"##룐":10813,"##젅":10814,"##뛴":10815,"##짴":10816,"##껃":10817,"##흋":10818,"##춱":10819,"##곂":10820,"##돳":10821,"##폔":10822,"##칟":10823,"##즂":10824,"##쌘":10825,"##랒":10826,"##랳":10827,"##즏":10828,"##퇘":10829,"##엦":10830,"##볜":10831,"##얬":10832,"##덖":10833,"##셐":10834,"##꾜":10835,"##뎧":10836,"##뽱":10837,"##깼":10838,"##뽇":10839,"##섡":10840,"##좩":10841,"##몆":10842,"##쟙":10843,"##쭸":10844,"##럤":10845,"##햣":10846,"##챵":10847,"##닞":10848,"##풹":10849,"##삲":10850,"##뿝":10851,"##봍":10852,"##퍕":10853,"##댬":10854,"##띱":10855,"##뤅":10856,"##삯":10857,"##믱":10858,"##섳":10859,"##츸":10860,"##쿹":10861,"##젆":10862,"##띧":10863,"##싓":10864,"##됟":10865,"##웖":10866,"##벜":10867,"##꽄":10868,"##룤":10869,"##얭":10870,"##긐":10871,"##렊":10872,"##꼳":10873,"##좝":10874,"##랝":10875,"##앖":10876,"##딮":10877,"##츋":10878,"##쩬":10879,"##츙":10880,"##귷":10881,"##멷":10882,"##칲":10883,"##냏":10884,"##줮":10885,"##읒":10886,"##쾨":10887,"##뗀":10888,"##퓻":10889,"##럄":10890,"##뺸":10891,"##뎨":10892,"##캰":10893,"##녈":10894,"##엗":10895,"##솊":10896,"##컁":10897,"##쯩":10898,"##뉩":10899,"##펵":10900,"##윞":10901,"##녤":10902,"##잆":10903,"##펰":10904,"##릳":10905,"##혚":10906,"##쟨":10907,"##핕":10908,"##딷":10909,"##훚":10910,"##훋":10911,"##뉫":10912,"##젏":10913,"##섣":10914,"##죈":10915,"##뜜":10916,"##됀":10917,"##쩎":10918,"##쉈":10919,"##솧":10920,"##왬":10921,"##쳌":10922,"##봌":10923,"##굄":10924,"##씇":10925,"##홐":10926,"##띔":10927,"##뭋":10928,"##듷":10929,"##늅":10930,"##탖":10931,"##꺌":10932,"##곀":10933,"##륻":10934,"##쥭":10935,"##썍":10936,"##뭡":10937,"##귘":10938,"##컯":10939,"##냘":10940,"##텇":10941,"##괨":10942,"##팒":10943,"##뚞":10944,"##잀":10945,"##죰":10946,"##죡":10947,"##욵":10948,"##힠":10949,"##죺":10950,"##둨":10951,"##똫":10952,"##풘":10953,"##ㄼ":10954,"##쉉":10955,"##칀":10956,"##잜":10957,"##뤤":10958,"##봁":10959,"##춚":10960,"##훑":10961,"##땧":10962,"##횝":10963,"##녂":10964,"##렦":10965,"##걕":10966,"##밞":10967,"##옜":10968,"##녇":10969,"##틓":10970,"##핱":10971,"##겿":10972,"##륽":10973,"##줜":10974,"##놩":10975,"##뫙":10976,"##윱":10977,"##낟":10978,"##뽂":10979,"##퇀":10980,"##젰":10981,"##픃":10982,"##묹":10983,"##졈":10984,"##삧":10985,"##됸":10986,"##뭊":10987,"##봈":10988,"##몯":10989,"##싵":10990,"##쯉":10991,"##쀽":10992,"##롣":10993,"##덍":10994,"##톻":10995,"##뎔":10996,"##섦":10997,"##뫈":10998,"##좨":10999,"##풔":11000,"##귬":11001,"##퉷":11002,"##닾":11003,"##맍":11004,"##똠":11005,"##팼":11006,"##눵":11007,"##놕":11008,"##읅":11009,"##섵":11010,"##곌":11011,"##듄":11012,"##댴":11013,"##켕":11014,"##끆":11015,"##풜":11016,"##멃":11017,"##옼":11018,"##몾":11019,"##믚":11020,"##넿":11021,"##윘":11022,"##졉":11023,"##싥":11024,"##웥":11025,"##굷":11026,"##읁":11027,"##둰":11028,"##궭":11029,"##뫠":11030,"##앏":11031,"##읹":11032,"##잍":11033,"##엶":11034,"##얊":11035,"##뉭":11036,"##뮹":11037,"##듫":11038,"##걜":11039,"##퓟":11040,"##굡":11041,"##흿":11042,"##띰":11043,"##룀":11044,"##콭":11045,"##뻇":11046,"##뗼":11047,"##퀜":11048,"##젣":11049,"##촪":11050,"##텉":11051,"##쪹":11052,"##랂":11053,"##롲":11054,"##돇":11055,"##봔":11056,"##퍙":11057,"##뢔":11058,"##뗠":11059,"##몉":11060,"##쎀":11061,"##닊":11062,"##봑":11063,"##먻":11064,"##뼜":11065,"##졲":11066,"##톷":11067,"##횰":11068,"##좈":11069,"##믁":11070,"##딬":11071,"##핪":11072,"##뤌":11073,"##럑":11074,"##쾃":11075,"##겢":11076,"##큿":11077,"##끾":11078,"##뺒":11079,"##힢":11080,"##슶":11081,"##쏼":11082,"##턉":11083,"##귁":11084,"##웝":11085,"##갣":11086,"##둫":11087,"##쯘":11088,"##읮":11089,"##싖":11090,"##솦":11091,"##뤂":11092,"##몃":11093,"##햨":11094,"##캑":11095,"##놯":11096,"##힡":11097,"##쟐":11098,"##덫":11099,"##꽆":11100,"##쬔":11101,"##윧":11102,"##푝":11103,"##눚":11104,"##뽘":11105,"##븉":11106,"##칞":11107,"##뫘":11108,"##뵘":11109,"##솢":11110,"##벴":11111,"##졀":11112,"##슏":11113,"##밣":11114,"##렞":11115,"##봫":11116,"##톁":11117,"##쟏":11118,"##궉":11119,"##뫽":11120,"##닯":11121,"##뉠":11122,"##핣":11123,"##굻":11124,"##놜":11125,"##뙜":11126,"##쓥":11127,"##핚":11128,"##쯕":11129,"##빸":11130,"##쫚":11131,"##돻":11132,"##딹":11133,"##븃":11134,"##읓":11135,"##컿":11136,"##띁":11137,"##쨱":11138,"##솰":11139,"##솹":11140,"##쥡":11141,"##귑":11142,"##텤":11143,"##춀":11144,"##긧":11145,"##홗":11146,"##뱣":11147,"##뱥":11148,"##릮":11149,"##욨":11150,"##긂":11151,"##뻰":11152,"##쩅":11153,"##깵":11154,"##짉":11155,"##룅":11156,"##꼄":11157,"##싈":11158,"##돆":11159,"##굇":11160,"##슿":11161,"##쵤":11162,"##겣":11163,"##퉆":11164,"##솠":11165,"##틉":11166,"##퉃":11167,"##숼":11168,"##솀":11169,"##갂":11170,"##걘":11171,"##녖":11172,"##얒":11173,"##읖":11174,"##큉":11175,"##뮽":11176,"##뜷":11177,"##뀟":11178,"##읫":11179,"##읠":11180,"##뻡":11181,"##밬":11182,"##늿":11183,"##굔":11184,"##읩":11185,"##쯧":11186,"##녿":11187,"##먺":11188,"##뵥":11189,"##숔":11190,"##롶":11191,"##쥨":11192,"##꽐":11193,"##콬":11194,"##퉜":11195,"##췤":11196,"##눨":11197,"##깪":11198,"##촠":11199,"##햝":11200,"##껕":11201,"##줕":11202,"##춗":11203,"##칮":11204,"##찓":11205,"##찟":11206,"##릡":11207,"##룓":11208,"##턍":11209,"##굲":11210,"##쑉":11211,"##꿕":11212,"##쨓":11213,"##읿":11214,"##쪈":11215,"##섧":11216,"##겚":11217,"##떔":11218,"##쒕":11219,"##괁":11220,"##둦":11221,"##겦":11222,"##죌":11223,"##삣":11224,"##읐":11225,"##쪕":11226,"##꿴":11227,"##싨":11228,"##쌇":11229,"##빶":11230,"##췽":11231,"##욺":11232,"##릍":11233,"##펖":11234,"##욷":11235,"##샄":11236,"##즄":11237,"##짂":11238,"##딯":11239,"##럇":11240,"##놐":11241,"##섮":11242,"##즬":11243,"##뤡":11244,"##맼":11245,"##뉵":11246,"##뤨":11247,"##꼥":11248,"##룾":11249,"##뭃":11250,"##곅":11251,"##얋":11252,"##톺":11253,"##짆":11254,"##욉":11255,"##츜":11256,"##츝":11257,"##눹":11258,"##꾳":11259,"##툇":11260,"##갺":11261,"##웑":11262,"##닟":11263,"##쟘":11264,"##욈":11265,"##칧":11266,"##뵌":11267,"##싪":11268,"##맢":11269,"##넻":11270,"##칑":11271,"##훓":11272,"##튽":11273,"##댷":11274,"##찧":11275,"##톽":11276,"##쳋":11277,"##죃":11278,"##욫":11279,"##갴":11280,"##냡":11281,"##뺍":11282,"##녱":11283,"##뺼":11284,"##췃":11285,"##봊":11286,"##벎":11287,"##끜":11288,"##뉑":11289,"##쩠":11290,"##짣":11291,"##큳":11292,"##옾":11293,"##츔":11294,"##갅":11295,"##넽":11296,"##뻿":11297,"##늌":11298,"##솽":11299,"##늰":11300,"##쬘":11301,"##먑":11302,"##숸":11303,"##굦":11304,"##봒":11305,"##샠":11306,"##굗":11307,"##릋":11308,"##뿃":11309,"##퐌":11310,"##쟜":11311,"##찷":11312,"##엃":11313,"##긃":11314,"##섕":11315,"##퀭":11316,"##웄":11317,"##챳":11318,"##깋":11319,"##컭":11320,"##뤙":11321,"##맫":11322,"##톄":11323,"##읪":11324,"##텰":11325,"##옣":11326,"##쎕":11327,"##뻒":11328,"##캎":11329,"##욣":11330,"##뜁":11331,"##옭":11332,"##떱":11333,"##큩":11334,"##벆":11335,"##셛":11336,"##욶":11337,"##왹":11338,"##쮼":11339,"##톧":11340,"##튺":11341,"##낐":11342,"##곙":11343,"##돐":11344,"##홯":11345,"##샒":11346,"##멐":11347,"##왯":11348,"##쌎":11349,"##햘":11350,"##웎":11351,"##늫":11352,"##훜":11353,"##핧":11354,"##붰":11355,"##쨎":11356,"##듛":11357,"##밷":11358,"##츱":11359,"##닲":11360,"##즥":11361,"##뵀":11362,"##쬑":11363,"##줨":11364,"##쏸":11365,"##웂":11366,"##랟":11367,"##쓕":11368,"##킇":11369,"##쁮":11370,"##긘":11371,"##흴":11372,"##룟":11373,"##죨":11374,"##잚":11375,"##셯":11376,"##좐":11377,"##춛":11378,"##픍":11379,"##뢳":11380,"##둟":11381,"##퍠":11382,"##쟂":11383,"##룿":11384,"##섥":11385,"##얅":11386,"##럕":11387,"##귺":11388,"##헏":11389,"##홒":11390,"##럮":11391,"##꺙":11392,"##섿":11393,"##뻭":11394,"##춡":11395,"##휫":11396,"##뻫":11397,"##귻":11398,"##잂":11399,"##쬽":11400,"##핔":11401,"##윪":11402,"##핃":11403,"##넠":11404,"##쎘":11405,"##쩰":11406,"##쮹":11407,"##횻":11408,"##샼":11409,"##룍":11410,"##갃":11411,"##뎇":11412,"##뫌":11413,"##얆":11414,"##폋":11415,"##엞":11416,"##묠":11417,"##벝":11418,"##홪":11419,"##캴":11420,"##릠":11421,"##뗫":11422,"##걈":11423,"##흽":11424,"##탞":11425,"##뵹":11426,"##힁":11427,"##햎":11428,"##놎":11429,"##젶":11430,"##쏀":11431,"##뇔":11432,"##쇱":11433,"##뺘":11434,"##쭬":11435,"##뱓":11436,"##핻":11437,"##쫅":11438,"##웚":11439,"##췻":11440,"##껬":11441,"##슂":11442,"##읆":11443,"##렻":11444,"##럸":11445,"##썖":11446,"##켛":11447,"##븣":11448,"##멮":11449,"##펔":11450,"##첯":11451,"##짔":11452,"##겂":11453,"##럾":11454,"##헡":11455,"##샣":11456,"##삡":11457,"##걌":11458,"##듰":11459,"##잧":11460,"##돞":11461,"##턏":11462,"##젂":11463,"##뢉":11464,"##덪":11465,"##즞":11466,"##쥿":11467,"##뷱":11468,"##뻉":11469,"##잛":11470,"##믽":11471,"##렍":11472,"##놘":11473,"##냬":11474,"##픨":11475,"##촟":11476,"##쳫":11477,"##퍞":11478,"##탰":11479,"##쾈":11480,"##좍":11481,"##씡":11482,"##읬":11483,"##꼉":11484,"##좠":11485,"##꾺":11486,"##됮":11487,"##퍟":11488,"##뚥":11489,"##듳":11490,"##쬠":11491,"##긹":11492,"##킌":11493,"##멪":11494,"##웈":11495,"##겫":11496,"##찪":11497,"##륫":11498,"##턑":11499,"##쓺":11500,"##쉎":11501,"##쁑":11502,"##튱":11503,"##쩓":11504,"##얳":11505,"##걹":11506,"##춌":11507,"##펃":11508,"##꼔":11509,"##웋":11510,"##릶":11511,"##탘":11512,"##랆":11513,"##쇤":11514,"##쒓":11515,"##룢":11516,"##옽":11517,"##뎉":11518,"##룧":11519,"##맔":11520,"##뭁":11521,"##넞":11522,"##몋":11523,"##헼":11524,"##벧":11525,"##뽓":11526,"##놑":11527,"##긌":11528,"##뜐":11529,"##덨":11530,"##뇻":11531,"##뢴":11532,"##쎆":11533,"##둏":11534,"##껠":11535,"##뼤":11536,"##슻":11537,"##뎊":11538,"##놬":11539,"##붅":11540,"##갌":11541,"##믙":11542,"##붆":11543,"##삷":11544,"##욀":11545,"##땤":11546,"##샆":11547,"##곴":11548,"##뷋":11549,"##옉":11550,"##눝":11551,"##좽":11552,"##셫":11553,"##탇":11554,"##읂":11555,"##췸":11556,"##슀":11557,"##넊":11558,"##쩧":11559,"##흼":11560,"##뼁":11561,"##쑦":11562,"##짫":11563,"##풐":11564,"##멌":11565,"##츗":11566,"##먈":11567,"##샋":11568,"##쐉":11569,"##뻠":11570,"##혘":11571,"##쿈":11572,"##욾":11573,"##꽊":11574,"##륍":11575,"##풕":11576,"##츷":11577,"##턕":11578,"##굫":11579,"##쫏":11580,"##븅":11581,"##똒":11582,"##낻":11583,"##푄":11584,"##혤":11585,"##롑":11586,"##겾":11587,"##볽":11588,"##퍗":11589,"##퓬":11590,"##쾩":11591,"##뀝":11592,"##녴":11593,"##퇍":11594,"##돱":11595,"##묨":11596,"##퐐":11597,"##픝":11598,"##궝":11599,"##엋":11600,"##쇟":11601,"##벛":11602,"##숰":11603,"##챰":11604,"##꼅":11605,"##쩻":11606,"##쩀":11607,"##쩖":11608,"##줐":11609,"##엯":11610,"##떪":11611,"##휵":11612,"##걳":11613,"##쎤":11614,"##쎂":11615,"##깞":11616,"##탴":11617,"##늚":11618,"##볾":11619,"##칻":11620,"##뇠":11621,"##뢀":11622,"##픅":11623,"##뻨":11624,"##촹":11625,"##쵭":11626,"##뛔":11627,"##닩":11628,"##뭥":11629,"##쇰":11630,"##륾":11631,"##긬":11632,"##욐":11633,"##뭨":11634,"##뉏":11635,"##춣":11636,"##꿑":11637,"##뱩":11638,"##댛":11639,"##얙":11640,"##젘":11641,"##췅":11642,"##앆":11643,"##팓":11644,"##렅":11645,"##훃":11646,"##잪":11647,"##캋":11648,"##뢸":11649,"##릱":11650,"##떀":11651,"##탣":11652,"##엳":11653,"##돘":11654,"##댇":11655,"##셬":11656,"##꺆":11657,"##봴":11658,"##굌":11659,"##웸":11660,"##빢":11661,"##탍":11662,"##넢":11663,"##젲":11664,"##힏":11665,"##꺵":11666,"##늧":11667,"##븕":11668,"##햩":11669,"##핷":11670,"##둴":11671,"##왴":11672,"##볔":11673,"##똦":11674,"##뚦":11675,"##픗":11676,"##혙":11677,"##맇":11678,"##혱":11679,"##붛":11680,"##쭿":11681,"##퀑":11682,"##삵":11683,"##욿":11684,"##돰":11685,"##봽":11686,"##뜡":11687,"##췩":11688,"##쒈":11689,"##팊":11690,"##숳":11691,"##쳩":11692,"##톹":11693,"##뒙":11694,"##굤":11695,"##뗬":11696,"##컽":11697,"##퐙":11698,"##뷷":11699,"##뽞":11700,"##걑":11701,"##쳦":11702,"##쳗":11703,"##돓":11704,"##쪨":11705,"##넑":11706,"##둓":11707,"##쏍":11708,"##줁":11709,"##쉅":11710,"##겥":11711,"##젿":11712,"##꽇":11713,"##퐅":11714,"##뤃":11715,"##톔":11716,"##묀":11717,"##헑":11718,"##킂":11719,"##핤":11720,"##젗":11721,"##렾":11722,"##귡":11723,"##춮":11724,"##챷":11725,"##댖":11726,"##뤵":11727,"##꼲":11728,"##닡":11729,"##흪":11730,"##퀫":11731,"##셪":11732,"##큇":11733,"##댙":11734,"##깇":11735,"##멏":11736,"##턎":11737,"##롵":11738,"##낢":11739,"##뱧":11740,"##눋":11741,"##삤":11742,"##줰":11743,"##좸":11744,"##쓈":11745,"##컀":11746,"##횃":11747,"##뒥":11748,"##쳨":11749,"##흒":11750,"##줙":11751,"##쎙":11752,"##꿘":11753,"##쩟":11754,"##뿥":11755,"##픟":11756,"##묏":11757,"##캏":11758,"##칳":11759,"##쟄":11760,"##좉":11761,"##찯":11762,"##뚧":11763,"##쓷":11764,"##켴":11765,"##츽":11766,"##긊":11767,"##귴":11768,"##횩":11769,"##똨":11770,"##빞":11771,"##욍":11772,"##겵":11773,"##봗":11774,"##뜍":11775,"##랓":11776,"##껸":11777,"##넟":11778,"##웣":11779,"##쓹":11780,"##궹":11781,"##쒝":11782,"##탶":11783,"##탲":11784,"##괐":11785,"##쁟":11786,"##뽤":11787,"##댲":11788,"##죧":11789,"##췰":11790,"##맿":11791,"##릘":11792,"##꽌":11793,"##퐤":11794,"##룠":11795,"##뎜":11796,"##낣":11797,"##넡":11798,"##렆":11799,"##뇮":11800,"##윶":11801,"##짃":11802,"##읰":11803,"##뤱":11804,"##옘":11805,"##봦":11806,"##쌧":11807,"##윀":11808,"##렣":11809,"##좯":11810,"##썡":11811,"##딍":11812,"##궀":11813,"##픞":11814,"##귵":11815,"##흦":11816,"##똧":11817,"##죾":11818,"##힟":11819,"##딖":11820,"##묄":11821,"##흌":11822,"##탛":11823,"##팇":11824,"##컇":11825,"##겓":11826,"##옃":11827,"##밠":11828,"##췆":11829,"##괵":11830,"##븰":11831,"##딋":11832,"##롞":11833,"##넎":11834,"##쪅":11835,"##뜾":11836,"##듘":11837,"##냊":11838,"##콯":11839,"##맃":11840,"##셖":11841,"##홴":11842,"##쒘":11843,"##섺":11844,"##굚":11845,"##틂":11846,"##댚":11847,"##쁌":11848,"##촼":11849,"##흧":11850,"##붋":11851,"##쳅":11852,"##쿘":11853,"##뗔":11854,"##늖":11855,"##쭄":11856,"##뙁":11857,"##줸":11858,"##쩃":11859,"##긏":11860,"##덞":11861,"##쿻":11862,"##붚":11863,"##텋":11864,"##닰":11865,"##넀":11866,"##헢":11867,"##슦":11868,"##쌥":11869,"##럷":11870,"##튵":11871,"##쁭":11872,"##끘":11873,"##픓":11874,"##끰":11875,"##꾤":11876,"##땓":11877,"##잳":11878,"##쭨":11879,"##맅":11880,"##벹":11881,"##틏":11882,"##곬":11883,"##훀":11884,"##찣":11885,"##늤":11886,"##뚣":11887,"##볋":11888,"##륟":11889,"##훛":11890,"##띙":11891,"##몿":11892,"##퐃":11893,"##룃":11894,"##띌":11895,"##괬":11896,"##뜅":11897,"##뢐":11898,"##앁":11899,"##쮀":11900,"##죹":11901,"##뒺":11902,"##긺":11903,"##럥":11904,"##숛":11905,"##튁":11906,"##춭":11907,"##냗":11908,"##릃":11909,"##죕":11910,"##냤":11911,"##윯":11912,"##껓":11913,"##뇾":11914,"##캨":11915,"##큍":11916,"##혬":11917,"##쬲":11918,"##잟":11919,"##뫗":11920,"##톸":11921,"##콋":11922,"##뾲":11923,"##룯":11924,"##춬":11925,"##돎":11926,"##녛":11927,"##댤":11928,"##뮘":11929,"##갏":11930,"##깗":11931,"##헜":11932,"##랅":11933,"##댞":11934,"##옞":11935,"##쁫":11936,"##쿅":11937,"##썀":11938,"##핗":11939,"##쯀":11940,"##틕":11941,"##뗭":11942,"##씆":11943,"##뀡":11944,"##칯":11945,"##뾸":11946,"##웓":11947,"##끎":11948,"##븁":11949,"##씪":11950,"##넔":11951,"##됗":11952,"##얂":11953,"##텻":11954,"##힇":11955,"##겇":11956,"##짞":11957,"##졏":11958,"##졶":11959,"##챸":11960,"##쒔":11961,"##뭴":11962,"##빍":11963,"##좄":11964,"##뢌":11965,"##홖":11966,"##돝":11967,"##푶":11968,"##쮝":11969,"##걐":11970,"##뮛":11971,"##쪠":11972,"##죷":11973,"##쑷":11974,"##뀽":11975,"##쨬":11976,"##틘":11977,"##뀍":11978,"##렏":11979,"##긇":11980,"##쪔":11981,"##냎":11982,"##펓":11983,"##떘":11984,"##밮":11985,"##퓜":11986,"##귔":11987,"##틤":11988,"##쟇":11989,"##땸":11990,"##훞":11991,"##풏":11992,"##솸":11993,"##뎥":11994,"##쑌":11995,"##옦":11996,"##뎦":11997,"##끍":11998,"##롟":11999,"##졩":12000,"##맻":12001,"##젵":12002,"##젚":12003,"##왇":12004,"##볷":12005,"##뿠":12006,"##뀅":12007,"##텩":12008,"##짪":12009,"##쎝":12010,"##췐":12011,"##핲":12012,"##챴":12013,"##븤":12014,"##엵":12015,"##밇":12016,"##닪":12017,"##톩":12018,"##먤":12019,"##굅":12020,"##엱":12021,"##윿":12022,"##뮦":12023,"##녾":12024,"##빜":12025,"##뽥":12026,"##콛":12027,"##롳":12028,"##뤔":12029,"##듡":12030,"##콮":12031,"##틷":12032,"##턋":12033,"##컼":12034,"##킿":12035,"##퓐":12036,"##붏":12037,"##끋":12038,"##숗":12039,"##갷":12040,"##쓍":12041,"##씋":12042,"##멂":12043,"##짏":12044,"##쒤":12045,"##횄":12046,"##홏":12047,"##웊":12048,"##욲":12049,"##믠":12050,"##퐂":12051,"##줝":12052,"##밳":12053,"##븘":12054,"##콌":12055,"##쳰":12056,"##캽":12057,"##촋":12058,"##쁴":12059,"##슩":12060,"##쥲":12061,"##싐":12062,"##뀹":12063,"##삻":12064,"##릈":12065,"##캦":12066,"##썃":12067,"##엓":12068,"##뒝":12069,"##됑":12070,"##룣":12071,"##벍":12072,"##덣":12073,"##폍":12074,"##췈":12075,"##탼":12076,"##쇙":12077,"##웗":12078,"##춋":12079,"##뮷":12080,"##뒁":12081,"##뀠":12082,"##쓖":12083,"##췍":12084,"##괝":12085,"##촿":12086,"##붱":12087,"##뤁":12088,"##챼":12089,"##뿽":12090,"##릥":12091,"##롁":12092,"##샽":12093,"##짲":12094,"##낛":12095,"##릊":12096,"##챊":12097,"##옠":12098,"##뢋":12099,"##곩":12100,"##캍":12101,"##껩":12102,"##븓":12103,"##쾐":12104,"##엩":12105,"##굸":12106,"##렺":12107,"##퐜":12108,"##븧":12109,"##눱":12110,"##벸":12111,"##퇫":12112,"##앛":12113,"##딀":12114,"##촡":12115,"##곹":12116,"##펲":12117,"##퐛":12118,"##줵":12119,"##걉":12120,"##롕":12121,"##벊":12122,"##뿎":12123,"##튑":12124,"##먝":12125,"##롈":12126,"##숃":12127,"##췁":12128,"##괼":12129,"##쯜":12130,"##쭥":12131,"##둭":12132,"##멑":12133,"##끁":12134,"##얓":12135,"##럱":12136,"##돏":12137,"##윜":12138,"##꾾":12139,"##웇":12140,"##댗":12141,"##빆":12142,"##눰":12143,"##헓":12144,"##홎":12145,"##벾":12146,"##굮":12147,"##벐":12148,"##딭":12149,"##퍋":12150,"##낤":12151,"##걁":12152,"##뱢":12153,"##쟞":12154,"##뱝":12155,"##궷":12156,"##딝":12157,"##뇆":12158,"##읇":12159,"##뢨":12160,"##뎽":12161,"##뜪":12162,"##힄":12163,"##걵":12164,"##쨧":12165,"##늊":12166,"##찫":12167,"##젺":12168,"##쀠":12169,"##첲":12170,"##훉":12171,"##꿓":12172,"##뻖":12173,"##롔":12174,"##럌":12175,"##듿":12176,"##앒":12177,"##켡":12178,"##챜":12179,"##봆":12180,"##츊":12181,"##엲":12182,"##넾":12183,"##끵":12184,"##섈":12185,"##됰":12186,"##낝":12187,"##쥳":12188,"##녃":12189,"##쀄":12190,"##셱":12191,"##캊":12192,"##꿐":12193,"##덙":12194,"##웪":12195,"##셎":12196,"##앦":12197,"##둵":12198,"##늴":12199,"##꽜":12200,"##꺛":12201,"##웢":12202,"##뜼":12203,"##괙":12204,"##밫":12205,"##붵":12206,"##굘":12207,"##맗":12208,"##썐":12209,"##긅":12210,"##뛱":12211,"##싢":12212,"##찱":12213,"##뛌":12214,"##븈":12215,"##븽":12216,"##졳":12217,"##즟":12218,"##쉊":12219,"##뷩":12220,"##뼐":12221,"##븻":12222,"##좥":12223,"##툠":12224,"##륺":12225,"##퍂":12226,"##훵":12227,"##좟":12228,"##먾":12229,"##쨟":12230,"##닧":12231,"##묰":12232,"##궆":12233,"##쥅":12234,"##긕":12235,"##끡":12236,"##넗":12237,"##벘":12238,"##넖":12239,"##쨨":12240,"##뮾":12241,"##쎱":12242,"##춸":12243,"##뮺":12244,"##샊":12245,"##뚁":12246,"##뺃":12247,"##앿":12248,"##얠":12249,"##섻":12250,"##땢":12251,"##퉹":12252,"##릵":12253,"##앩":12254,"##꼮":12255,"##찤":12256,"##갞":12257,"##튾":12258,"##믝":12259,"##욳":12260,"##짥":12261,"##폣":12262,"##퇶":12263,"##퍛":12264,"##띃":12265,"##쬎":12266,"##랯":12267,"##쎵":12268,"##줆":12269,"##킾":12270,"##섫":12271,"##샃":12272,"##냫":12273,"##꼊":12274,"##긶":12275,"##겴":12276,"##륮":12277,"##륱":12278,"##쏬":12279,"##눜":12280,"##꺨":12281,"##놃":12282,"##앹":12283,"##쟹":12284,"##뇐":12285,"##덝":12286,"##혇":12287,"##쭊":12288,"##묾":12289,"##뎝":12290,"##뇟":12291,"##왂":12292,"##렡":12293,"##껟":12294,"##괂":12295,"##럋":12296,"##춐":12297,"##빩":12298,"##슸":12299,"##뿓":12300,"##탂":12301,"##뼝":12302,"##빫":12303,"##캈":12304,"##콪":12305,"##붼":12306,"##쭵":12307,"##뒴":12308,"##턔":12309,"##믛":12310,"##먙":12311,"##먋":12312,"##휏":12313,"##띕":12314,"##꽨":12315,"##흝":12316,"##푈":12317,"##잩":12318,"##닂":12319,"##늭":12320,"##밂":12321,"##즼":12322,"##뿀":12323,"##뵬":12324,"##뻴":12325,"##뤳":12326,"##듥":12327,"##좢":12328,"##빇":12329,"##팉":12330,"##씾":12331,"##폅":12332,"##툶":12333,"##걓":12334,"##뜝":12335,"##믘":12336,"##쟸":12337,"##튓":12338,"##췾":12339,"##꽹":12340,"##놌":12341,"##뿰":12342,"##멭":12343,"##쭠":12344,"##엻":12345,"##눳":12346,"##쒹":12347,"##귽":12348,"##쇅":12349,"##닑":12350,"##륶":12351,"##촴":12352,"##꺉":12353,"##췀":12354,"##줳":12355,"##됻":12356,"##늒":12357,"##뭓":12358,"##왰":12359,"##묫":12360,"##첱":12361,"##꺘":12362,"##뺜":12363,"##욋":12364,"##렧":12365,"##얿":12366,"##츺":12367,"##렶":12368,"##츞":12369,"##쟃":12370,"##둼":12371,"##벻":12372,"##켲":12373,"##릾":12374,"##뒸":12375,"##툿":12376,"##녙":12377,"##훝":12378,"##꿅":12379,"##킭":12380,"##솩":12381,"##젙":12382,"##먓":12383,"##쑀":12384,"##뵞":12385,"##웒":12386,"##벫":12387,"##듩":12388,"##춪":12389,"##쿽":12390,"##꺳":12391,"##캪":12392,"##퇑":12393,"##좫":12394,"##햛":12395,"##퍡":12396,"##윝":12397,"##걼":12398,"##뵷":12399,"##믖":12400,"##릣":12401,"##킸":12402,"##픛":12403,"##뜃":12404,"##슣":12405,"##샢":12406,"##돍":12407,"##싟":12408,"##걖":12409,"##싁":12410,"##뛬":12411,"##쭭":12412,"##뷈":12413,"##쫟":12414,"##켷":12415,"##촊":12416,"##첮":12417,"##궘":12418,"##걿":12419,"##뢧":12420,"##첰":12421,"##괃":12422,"##럏":12423,"##죶":12424,"##윟":12425,"##틭":12426,"##꿜":12427,"##곢":12428,"##푬":12429,"##걲":12430,"##똻":12431,"##똿":12432,"##홚":12433,"##탷":12434,"##붔":12435,"##댵":12436,"##쓿":12437,"##얩":12438,"##챧":12439,"##룦":12440,"##껙":12441,"##닁":12442,"##즷":12443,"##냼":12444,"##슠":12445,"##힞":12446,"##혆":12447,"##찭":12448,"##폘":12449,"##돴":12450,"##퉥":12451,"##슟":12452,"##죿":12453,"##퐆":12454,"##잶":12455,"##슞":12456,"##졨":12457,"##띿":12458,"##챋":12459,"##뿩":12460,"##늇":12461,"##앢":12462,"##팆":12463,"##뤸":12464,"##싮":12465,"##웛":12466,"##낒":12467,"##켵":12468,"##늏":12469,"##맽":12470,"##욼":12471,"##괺":12472,"##탿":12473,"##갋":12474,"##릔":12475,"##쳠":12476,"##뽖":12477,"##넺":12478,"##꺈":12479,"##숞":12480,"##흞":12481,"##됳":12482,"##셚":12483,"##뻼":12484,"##퀕":12485,"##듞":12486,"##윢":12487,"##떧":12488,"##쥫":12489,"##뀸":12490,"##쩘":12491,"##킘":12492,"##햰":12493,"##쒯":12494,"##렋":12495,"##퀌":12496,"##눃":12497,"##닣":12498,"##춯":12499,"##욗":12500,"##끟":12501,"##쁝":12502,"##싦":12503,"##뭭":12504,"##뫟":12505,"##뵉":12506,"##븩":12507,"##숢":12508,"##쭹":12509,"##풑":12510,"##뉔":12511,"##럗":12512,"##죗":12513,"##빾":12514,"##꾁":12515,"##킆":12516,"##쌴":12517,"##쌛":12518,"##먆":12519,"##놂":12520,"##챶":12521,"##푳":12522,"##틧":12523,"##쌂":12524,"##쌐":12525,"##톶":12526,"##퀙":12527,"##휲":12528,"##혻":12529,"##껒":12530,"##쎾":12531,"##욎":12532,"##벩":12533,"##둚":12534,"##쿧":12535,"##딈":12536,"##퇸":12537,"##곾":12538,"##튷":12539,"##잙":12540,"##솃":12541,"##푭":12542,"##럶":12543,"##깒":12544,"##탚":12545,"##믻":12546,"##펹":12547,"##몊":12548,"##붠":12549,"##썾":12550,"##쳈":12551,"##꽀":12552,"##앻":12553,"##겺":12554,"##퍃":12555,"##눛":12556,"##엕":12557,"##훡":12558,"##퍔":12559,"##꺚":12560,"##쎳":12561,"##웱":12562,"##쁼":12563,"##헫":12564,"##갊":12565,"##뷕":12566,"##롐":12567,"##묌":12568,"##슧":12569,"##뭰":12570,"##츃":12571,"##슢":12572,"##쯨":12573,"##큑":12574,"##겮":12575,"##숒":12576,"##헗":12577,"##햋":12578,"##뱜":12579,"##꺍":12580,"##볃":12581,"##뮫":12582,"##쯍":12583,"##츶":12584,"##얎":12585,"##뚑":12586,"##듢":12587,"##볠":12588,"##폡":12589,"##챛":12590,"##럠":12591,"##냧":12592,"##둙":12593,"##돡":12594,"##쮱":12595,"##딳":12596,"##갶":12597,"##돊":12598,"##섪":12599,"##툡":12600,"##퇼":12601,"##샫":12602,"##쨴":12603,"##봰":12604,"##뽔":12605,"##놏":12606,"##뽛":12607,"##팏":12608,"##뽯":12609,"##샮":12610,"##빎":12611,"##쨤":12612,"##겱":12613,"##꿁":12614,"##쏰":12615,"##땥":12616,"##삸":12617,"##롮":12618,"##줅":12619,"##콨":12620,"##풓":12621,"##됔":12622,"##끤":12623,"##짵":12624,"##숵":12625,"##캀":12626,"##떯":12627,"##츀":12628,"##꺜":12629,"##쿷":12630,"##쾔":12631,"##떾":12632,"##꾕":12633,"##탅":12634,"##냍":12635,"##쿗":12636,"##썌":12637,"##쮠":12638,"##륯":12639,"##냩":12640,"##톃":12641,"##꺰":12642,"##뭈":12643,"##쓐":12644,"##띳":12645,"##옪":12646,"##쫤":12647,"##냒":12648,"##뼙":12649,"##핢":12650,"##팯":12651,"##뷥":12652,"##줋":12653,"##쩢":12654,"##졑":12655,"##뉌":12656,"##텓":12657,"##럯":12658,"##앃":12659,"##쬭":12660,"##툩":12661,"##킐":12662,"##쓉":12663,"##겳":12664,"##횤":12665,"##욞":12666,"##릷":12667,"##껵":12668,"##겙":12669,"##삉":12670,"##홨":12671,"##탗":12672,"##옧":12673,"##땉":12674,"##텑":12675,"##짮":12676,"##쇡":12677,"##쵠":12678,"##썋":12679,"##퉇":12680,"##팣":12681,"##쫂":12682,"##숕":12683,"##귛":12684,"##꺝":12685,"##뤕":12686,"##뮭":12687,"##뱟":12688,"##췹":12689,"##쮕":12690,"##냦":12691,"##룁":12692,"##꺂":12693,"##뤰":12694,"##떸":12695,"##첝":12696,"##낗":12697,"##쿔":12698,"##틒":12699,"##잁":12700,"##삺":12701,"##뀀":12702,"##혰":12703,"##틩":12704,"##푕":12705,"##덦":12706,"##횯":12707,"##틳":12708,"##솘":12709,"##빟":12710,"##췼":12711,"##괩":12712,"##팄":12713,"##퐇":12714,"##쁄":12715,"##놇":12716,"##툄":12717,"##휳":12718,"##긼":12719,"##풩":12720,"##솣":12721,"##첛":12722,"##냿":12723,"##핯":12724,"##쬥":12725,"##묩":12726,"##쳧":12727,"##맒":12728,"##룱":12729,"##엀":12730,"##휌":12731,"##둇":12732,"##혿":12733,"##뿛":12734,"##괠":12735,"##믤":12736,"##굈":12737,"##켣":12738,"##죅":12739,"##픿":12740,"##줼":12741,"##튶":12742,"##긤":12743,"##펕":12744,"##궬":12745,"##챁":12746,"##쾁":12747,"##촞":12748,"##칬":12749,"##폑":12750,"##묳":12751,"##먽":12752,"##팢":12753,"##닋":12754,"##쎽":12755,"##퉐":12756,"##켞":12757,"##훻":12758,"##꿱":12759,"##퉄":12760,"##쉠":12761,"##줖":12762,"##섄":12763,"##붴":12764,"##뉰":12765,"##쎰":12766,"##옲":12767,"##샺":12768,"##쓜":12769,"##햗":12770,"##귖":12771,"##꽛":12772,"##즴":12773,"##삨":12774,"##좂":12775,"##닄":12776,"##솏":12777,"##륐":12778,"##킠":12779,"##냋":12780,"##밲":12781,"##퍝":12782,"##굪":12783,"##슮":12784,"##몼":12785,"##턺":12786,"##숡":12787,"##칄":12788,"##첢":12789,"##섢":12790,"##꾐":12791,"##칱":12792,"##뎢":12793,"##퐘":12794,"##뫁":12795,"##쪤":12796,"##젨":12797,"##붍":12798,"##픰":12799,"##횅":12800,"##퍌":12801,"##괮":12802,"##굎":12803,"##싻":12804,"##왚":12805,"##곲":12806,"##듚":12807,"##깾":12808,"##롫":12809,"##줚":12810,"##폏":12811,"##숐":12812,"##흊":12813,"##핦":12814,"##뱕":12815,"##씝":12816,"##묿":12817,"##깦":12818,"##멒":12819,"##늳":12820,"##찦":12821,"##랱":12822,"##멫":12823,"##뎓":12824,"##펻":12825,"##쨖":12826,"##쐼":12827,"##릫":12828,"##뺩":12829,"##먗":12830,"##릯":12831,"##샦":12832,"##쭻":12833,"##뒌":12834,"##곮":12835,"##쀨":12836,"##뱋":12837,"##쭏":12838,"##쇈":12839,"##띻":12840,"##폯":12841,"##퓿":12842,"##흖":12843,"##꾲":12844,"##곟":12845,"##닎":12846,"##븞":12847,"##뒛":12848,"##됼":12849,"##쒰":12850,"##껖":12851,"##릲":12852,"##졺":12853,"##괫":12854,"##콫":12855,"##뗍":12856,"##뼡":12857,"##깖":12858,"##슄":12859,"##쉄":12860,"##찴":12861,"##꺊":12862,"##돽":12863,"##뺠":12864,"##렳":12865,"##흓":12866,"##닶":12867,"##럆":12868,"##먛":12869,"##슆":12870,"##킝":12871,"##흛":12872,"##씉":12873,"##봎":12874,"##맊":12875,"##끨":12876,"##쐑":12877,"##뗨":12878,"##쒑":12879,"##닗":12880,"##슊":12881,"##뭗":12882,"##꾿":12883,"##혯":12884,"##쵳":12885,"##햍":12886,"##쉗":12887,"##뤧":12888,"##믆":12889,"##읟":12890,"##쓼":12891,"##굊":12892,"##흢":12893,"##랚":12894,"##괗":12895,"##둊":12896,"##껶":12897,"##봋":12898,"##긵":12899,"##밦":12900,"##찳":12901,"##꺴":12902,"##쎜":12903,"##쉾":12904,"##핞":12905,"##캩":12906,"##씤":12907,"##쏱":12908,"##쒠":12909,"##뢩":12910,"##쵱":12911,"##뗜":12912,"##뜳":12913,"##윋":12914,"##뜿":12915,"##쉜":12916,"##튣":12917,"##꿌":12918,"##똰":12919,"##믗":12920,"##쉕":12921,"##듖":12922,"##닇":12923,"##솕":12924,"##뉻":12925,"##샡":12926,"##묷":12927,"##푁":12928,"##퓈":12929,"##볗":12930,"##펱":12931,"##뒑":12932,"##폌":12933,"##쵯":12934,"##쬿":12935,"##칢":12936,"##겭":12937,"##좧":12938,"##뒵":12939,"##뫕":12940,"##쨏":12941,"##칌":12942,"##괰":12943,"##앑":12944,"##펳":12945,"##혦":12946,"##귾":12947,"##홮":12948,"##욹":12949,"##챹":12950,"##쾬":12951,"##헮":12952,"##궨":12953,"##뵁":12954,"##꼤":12955,"##톢":12956,"##퍜":12957,"##뷹":12958,"##캃":12959,"##홁":12960,"##줩":12961,"##뾔":12962,"##췔":12963,"##긄":12964,"##멯":12965,"##꽣":12966,"##튻":12967,"##홣":12968,"##슅":12969,"##볖":12970,"##덚":12971,"##괒":12972,"##춞":12973,"##둅":12974,"##슡":12975,"##쳴":12976,"##휻":12977,"##튴":12978,"##튳":12979,"##퓾":12980,"##짺":12981,"##햙":12982,"##궴":12983,"##궸":12984,"##쌸":12985,"##앾":12986,"##렟":12987,"##즵":12988,"##탵":12989,"##쪜":12990,"##둮":12991,"##쩗":12992,"##뾴":12993,"##훍":12994,"##밒":12995,"##뮵":12996,"##딿":12997,"##첀":12998,"##껳":12999,"##볒":13000,"##몴":13001,"##헟":13002,"##띸":13003,"##슳":13004,"##녅":13005,"##볅":13006,"##꺔":13007,"##쏄":13008,"##걺":13009,"##썷":13010,"##걏":13011,"##틜":13012,"##꺖":13013,"##쳒":13014,"##뇜":13015,"##췡":13016,"##뽬":13017,"##덗":13018,"##숓":13019,"##죚":13020,"##녗":13021,"##졜":13022,"##챺":13023,"##삒":13024,"##뼏":13025,"##슯":13026,"##꾭":13027,"##뷉":13028,"##윥":13029,"##둒":13030,"##뭠":13031,"##훱":13032,"##럻":13033,"##뮝":13034,"##픁":13035,"##퉂":13036,"##퍁":13037,"##쮭":13038,"##젳":13039,"##핐":13040,"##팕":13041,"##뇯":13042,"##긪":13043,"##웯":13044,"##뀬":13045,"##귲":13046,"##푲":13047,"##몮":13048,"##긛":13049,"##쑐":13050,"##릑":13051,"##횾":13052,"##꺡":13053,"##짷":13054,"##뷧":13055,"##쀾":13056,"##뻩":13057,"##쥇":13058,"##흭":13059,"##릸":13060,"##욽":13061,"##궞":13062,"##셮":13063,"##엢":13064,"##돒":13065,"##촑":13066,"##뛷":13067,"##껔":13068,"##왖":13069,"##쒱":13070,"##씭":13071,"##윦":13072,"##헚":13073,"##갆":13074,"##뇡":13075,"##쬣":13076,"##샟":13077,"##옯":13078,"##둄":13079,"##멁":13080,"##녚":13081,"##폠":13082,"##쮈":13083,"##쏳":13084,"##밚":13085,"##쇨":13086,"##툅":13087,"##씍":13088,"##풸":13089,"##븢":13090,"##뽚":13091,"##쿌":13092,"##틊":13093,"##팚":13094,"##쉌":13095,"##럣":13096,"##럊":13097,"##븯":13098,"##씊":13099,"##꿥":13100,"##꽠":13101,"##벷":13102,"##퀍":13103,"##밡":13104,"##쿺":13105,"##릂":13106,"##꽦":13107,"##맾":13108,"##찗":13109,"##칔":13110,"##킰":13111,"##슲":13112,"##봭":13113,"##씄":13114,"##앂":13115,"##좎":13116,"##둧":13117,"##앣":13118,"##팾":13119,"##쬮":13120,"##덭":13121,"##햦":13122,"##챚":13123,"##혖":13124,"##쮬":13125,"##햪":13126,"##켇":13127,"##켗":13128,"##퉨":13129,"##뚄":13130,"##쏯":13131,"##믺":13132,"##즡":13133,"##삾":13134,"##콦":13135,"##밊":13136,"##땣":13137,"##왙":13138,"##횜":13139,"##엜":13140,"##몔":13141,"##캫":13142,"##샿":13143,"##쬼":13144,"##폳":13145,"##놁":13146,"##맚":13147,"##왿":13148,"##긥":13149,"##돩":13150,"##뭤":13151,"##쩽":13152,"##턘":13153,"##큗":13154,"##엹":13155,"##킃":13156,"##볈":13157,"##똮":13158,"##붌":13159,"##냪":13160,"##똽":13161,"##녯":13162,"##뉄":13163,"##뱇":13164,"##붬":13165,"##햧":13166,"##긲":13167,"##쩩":13168,"##삱":13169,"##혭":13170,"##꺤":13171,"##툉":13172,"##륷":13173,"##혾":13174,"##퓅":13175,"##얉":13176,"##읳":13177,"##궥":13178,"##왅":13179,"##슋":13180,"##괻":13181,"##쎨":13182,"##츟":13183,"##옢":13184,"##쟴":13185,"##뇝":13186,"##툻":13187,"##닍":13188,"##쀡":13189,"##닚":13190,"##큶":13191,"##칽":13192,"##쑫":13193,"##듟":13194,"##웼":13195,"##끉":13196,"##뒠":13197,"##럙":13198,"##쟆":13199,"##냛":13200,"##룪":13201,"##퉌":13202,"##봃":13203,"##곥":13204,"##홂":13205,"##펗":13206,"##뿧":13207,"##벺":13208,"##횢":13209,"##깯":13210,"##뙨":13211,"##픀":13212,"##쐄":13213,"##잒":13214,"##흅":13215,"##뀪":13216,"##즆":13217,"##쁱":13218,"##뎸":13219,"##렢":13220,"##믑":13221,"##쓘":13222,"##춠":13223,"##잓":13224,"##쩸":13225,"##꿂":13226,"##좬":13227,"##앇":13228,"##즑":13229,"##눂":13230,"##킧":13231,"##쓵":13232,"##콙":13233,"##씔":13234,"##뷍":13235,"##쑻":13236,"##퇵":13237,"##픤":13238,"##풴":13239,"##꾬":13240,"##쵁":13241,"##됢":13242,"##컈":13243,"##랋":13244,"##붤":13245,"##헲":13246,"##춏":13247,"##픵":13248,"##댥":13249,"##룈":13250,"##쭴":13251,"##쪟":13252,"##쓻":13253,"##캆":13254,"##깛":13255,"##썲":13256,"##뿼":13257,"##셭":13258,"##혗":13259,"##뽭":13260,"##쥄":13261,"##떃":13262,"##귳":13263,"##팖":13264,"##솛":13265,"##얫":13266,"##롢":13267,"##뺶":13268,"##홅":13269,"##븦":13270,"##픐":13271,"##텢":13272,"##녆":13273,"##혅":13274,"##릀":13275,"##뺗":13276,"##훎":13277,"##꺕":13278,"##깕":13279,"##쯪":13280,"##솻":13281,"##큵":13282,"##믂":13283,"##뢘":13284,"##쯴":13285,"##흍":13286,"##컶":13287,"##딺":13288,"##뭫":13289,"##묮":13290,"##첧":13291,"##딉":13292,"##짍":13293,"##붭":13294,"##툗":13295,"##봂":13296,"##뿬":13297,"##껗":13298,"##앲":13299,"##빉":13300,"##쉤":13301,"##걾":13302,"##쐅":13303,"##텂":13304,"##깂":13305,"##뻄":13306,"##뭀":13307,"##뷀":13308,"##췜":13309,"##탟":13310,"##홝":13311,"##낃":13312,"##쬴":13313,"##폮":13314,"##핋":13315,"##쨸":13316,"##쮓":13317,"##궮":13318,"##뀻":13319,"##뗙":13320,"##쓑":13321,"##콀":13322,"##떦":13323,"##픚":13324,"##숬":13325,"##콐":13326,"##괟":13327,"##쓀":13328,"##큌":13329,"##쑊":13330,"##뢥":13331,"##틎":13332,"##퇗":13333,"##쇗":13334,"##쌑":13335,"##믯":13336,"##먠":13337,"##뀁":13338,"##쵄":13339,"##뜔":13340,"##큻":13341,"##쾍":13342,"##잢":13343,"##셂":13344,"##덢":13345,"##몲":13346,"##볹":13347,"##빂":13348,"##쯋":13349,"##혲":13350,"##쫔":13351,"##뮼":13352,"##믅":13353,"##셙":13354,"##잕":13355,"##렮":13356,"##걎":13357,"##힒":13358,"##쵴":13359,"##쌒":13360,"##훁":13361,"##긯":13362,"##폊":13363,"##왆":13364,"##뽷":13365,"##쳊":13366,"##맖":13367,"##뛟":13368,"##챝":13369,"##똼":13370,"##큹":13371,"##돖":13372,"##싩":13373,"##뒘":13374,"##먇":13375,"##춝":13376,"##쐇":13377,"##롘":13378,"##즋":13379,"##곚":13380,"##뷮":13381,"##뼨":13382,"##츧":13383,"##닒":13384,"##챎":13385,"##싡":13386,"##흜":13387,"##쉳":13388,"##줟":13389,"##낕":13390,"##쐥":13391,"##뚹":13392,"##츚":13393,"##첑":13394,"##쏚":13395,"##꺏":13396,"##첚":13397,"##춑":13398,"##먖":13399,"##봙":13400,"##뉙":13401,"##쑼":13402,"##뢓":13403,"##쇵":13404,"##쎁":13405,"##쳪":13406,"##뒐":13407,"##됡":13408,"##픎":13409,"##훳":13410,"##쨚":13411,"##볂":13412,"##뭪":13413,"##햟":13414,"##헾":13415,"##둌":13416,"##쉩":13417,"##윣":13418,"##흎":13419,"##녰":13420,"##죘":13421,"##눁":13422,"##푴":13423,"##맋":13424,"##늽":13425,"##맪":13426,"##쒭":13427,"##귢":13428,"##븾":13429,"##킻":13430,"##꾄":13431,"##쥈":13432,"##즅":13433,"##뛀":13434,"##펒":13435,"##끞":13436,"##뉀":13437,"##쵕":13438,"##똟":13439,"##봵":13440,"##썁":13441,"##떌":13442,"##뮁":13443,"##쵐":13444,"##펮":13445,"##훰":13446,"##뛝":13447,"##랇":13448,"##퉽":13449,"##쟢":13450,"##졤":13451,"##렪":13452,"##뢤":13453,"##쐔":13454,"##킉":13455,"##뼀":13456,"##돉":13457,"##뵏":13458,"##럍":13459,"##쫳":13460,"##뫂":13461,"##튲":13462,"##쒵":13463,"##잝":13464,"##잲":13465,"##엸":13466,"##젌":13467,"##짳":13468,"##핊":13469,"##푣":13470,"##뉺":13471,"##걩":13472,"##볫":13473,"##녬":13474,"##숧":13475,"##꿒":13476,"##홭":13477,"##뵴":13478,"##뙀":13479,"##폎":13480,"##퓯":13481,"##썄":13482,"##뢱":13483,"##댼":13484,"##턶":13485,"##뫜":13486,"##숚":13487,"##홞":13488,"##뽸":13489,"##룥":13490,"##챽":13491,"##뤟":13492,"##젃":13493,"##꽬":13494,"##꿸":13495,"##띅":13496,"##맕":13497,"##뫔":13498,"##븋":13499,"##텹":13500,"##좼":13501,"##팑":13502,"##퉛":13503,"##뮿":13504,"##낈":13505,"##갍":13506,"##뵝":13507,"##뫴":13508,"##탳":13509,"##꾱":13510,"##퉵":13511,"##윛":13512,"##꾈":13513,"##컌":13514,"##헳":13515,"##꼏":13516,"##혃":13517,"##빷":13518,"##첡":13519,"##쩼":13520,"##큫":13521,"##곫":13522,"##뫰":13523,"##괓":13524,"##곣":13525,"##걤":13526,"##몱":13527,"##뙄":13528,"##둁":13529,"##첌":13530,"##똵":13531,"##곦":13532,"##몡":13533,"##똏":13534,"##땹":13535,"##턻":13536,"##볊":13537,"##젾":13538,"##쿕":13539,"##늜":13540,"##뻅":13541,"##풎":13542,"##둽":13543,"##웘":13544,"##낋":13545,"##밅":13546,"##빪":13547,"##쪰":13548,"##뗶":13549,"##졵":13550,"##쎡":13551,"##쬈":13552,"##헒":13553,"##큪":13554,"##졿":13555,"##뭂":13556,"##쒴":13557,"##뇄":13558,"##좰":13559,"##캼":13560,"##옩":13561,"##퀩":13562,"##윚":13563,"##밢":13564,"##뿤":13565,"##둪":13566,"##엂":13567,"##븸":13568,"##짿":13569,"##횧":13570,"##왉":13571,"##띀":13572,"##젎":13573,"##뺫":13574,"##뜛":13575,"##궏":13576,"##랁":13577,"##쉙":13578,"##녻":13579,"##쀵":13580,"##훘":13581,"##텣":13582,"##싧":13583,"##퐠":13584,"##꽏":13585,"##칚":13586,"##옰":13587,"##믉":13588,"##턿":13589,"##퐑":13590,"##퉉":13591,"##혂":13592,"##츩":13593,"##벦":13594,"##꿯":13595,"##붝":13596,"##럵":13597,"##퉴":13598,"##웞":13599,"##젒":13600,"##뀄":13601,"##혴":13602,"##넄":13603,"##꿻":13604,"##횁":13605,"##먊":13606,"##뎤":13607,"##봀":13608,"##눊":13609,"##룄":13610,"##뻍":13611,"##쌯":13612,"##낶":13613,"##엺":13614,"##곔":13615,"##잞":13616,"##씥":13617,"##싘":13618,"##텸":13619,"##뜟":13620,"##쒄":13621,"##핉":13622,"##뗳":13623,"##퐢":13624,"##퐀":13625,"##굨":13626,"##틇":13627,"##튯":13628,"##쨪":13629,"##벭":13630,"##뿕":13631,"##늟":13632,"##뾘":13633,"##맓":13634,"##죦":13635,"##혷":13636,"##쵺":13637,"##섩":13638,"##붊":13639,"##쪱":13640,"##헕":13641,"##쐘":13642,"##퓍":13643,"##첻":13644,"##셏":13645,"##뀯":13646,"##뷤":13647,"##켚":13648,"##쳏":13649,"##홟":13650,"##뱎":13651,"##쩁":13652,"##흟":13653,"##뽹":13654,"##뮙":13655,"##쁰":13656,"##뙬":13657,"##췝":13658,"##촷":13659,"##촫":13660,"##먱":13661,"##뜮":13662,"##뫝":13663,"##핒":13664,"##떗":13665,"##둯":13666,"##촺":13667,"##휗":13668,"##븠":13669,"##븖":13670,"##뭑":13671,"##겲":13672,"##찠":13673,"##뭕":13674,"##듪":13675,"##굧":13676,"##쵬":13677,"##꺢":13678,"##궠":13679,"##굩":13680,"##뱽":13681,"##츹":13682,"##깳":13683,"##퓘":13684,"##녭":13685,"##뵺":13686,"##쭷":13687,"##슒":13688,"##봿":13689,"##쒬":13690,"##뉬":13691,"##멅":13692,"##쏌":13693,"##싚":13694,"##턈":13695,"##숝":13696,"##컺":13697,"##졻":13698,"##녊":13699,"##싇":13700,"##쌲":13701,"##툣":13702,"##릁":13703,"##폵":13704,"##뚷":13705,"##촢":13706,"##댰":13707,"##흕":13708,"##냴":13709,"##돾":13710,"##혽":13711,"##볿":13712,"##눍":13713,"##갳":13714,"##걶":13715,"##껲":13716,"##츻":13717,"##쇌":13718,"##븗":13719,"##쐤":13720,"##틁":13721,"##촸":13722,"##쀔":13723,"##뚢":13724,"##끐":13725,"##솖":13726,"##솈":13727,"##툘":13728,"##쀅":13729,"##뭦":13730,"##뮉":13731,"##샻":13732,"##죂":13733,"##앷":13734,"##렽":13735,"##뚴":13736,"##첣":13737,"##쬤":13738,"##썱":13739,"##꾝":13740,"##핆":13741,"##녝":13742,"##귥":13743,"##븹":13744,"##쾒":13745,"##똄":13746,"##벏":13747,"##놊":13748,"##붯":13749,"##퍤":13750,"##캵":13751,"##칝":13752,"##쫆":13753,"##덈":13754,"##풤":13755,"##꺑":13756,"##믬":13757,"##뽴":13758,"##훪":13759,"##륆":13760,"##쏐":13761,"##꽴":13762,"##촭":13763,"##졹":13764,"##괕":13765,"##땎":13766,"##폁":13767,"##쑁":13768,"##늮":13769,"##뢕":13770,"##묯":13771,"##딻":13772,"##짒":13773,"##끏":13774,"##뫚":13775,"##퐥":13776,"##뙑":13777,"##밃":13778,"##훬":13779,"##쉞":13780,"##놄":13781,"##퐊":13782,"##떥":13783,"##뺕":13784,"##쓳":13785,"##꺓":13786,"##찥":13787,"##뙥":13788,"##뱊":13789,"##쫬":13790,"##쫁":13791,"##땆":13792,"##챆":13793,"##앫":13794,"##붎":13795,"##멲":13796,"##뛕":13797,"##벓":13798,"##늛":13799,"##헽":13800,"##셊":13801,"##셟":13802,"##둤":13803,"##퐞":13804,"##꽘":13805,"##쇘":13806,"##찺":13807,"##겏":13808,"##괯":13809,"##쾽":13810,"##빯":13811,"##쵿":13812,"##뗗":13813,"##쮤":13814,"##헍":13815,"##폥":13816,"##쵑":13817,"##럂":13818,"##믌":13819,"##즜":13820,"##힂":13821,"##훣":13822,"##쭗":13823,"##촻":13824,"##큲":13825,"##틥":13826,"##쒞":13827,"##퀔":13828,"##볇":13829,"##쑘":13830,"##킛":13831,"##꿹":13832,"##쪻":13833,"##촎":13834,"##쭞":13835,"##댧":13836,"##춢":13837,"##싾":13838,"##꺒":13839,"##뺚":13840,"##훒":13841,"##똇":13842,"##쭕":13843,"##짶":13844,"##헋":13845,"##왭":13846,"##쟬":13847,"##훯":13848,"##쩹":13849,"##썝":13850,"##뷃":13851,"##떅":13852,"##퐣":13853,"##뒫":13854,"##궼":13855,"##뎰":13856,"##똈":13857,"##헦":13858,"##뱰":13859,"##쐽":13860,"##쏮":13861,"##뜲":13862,"##쐿":13863,"##흚":13864,"##뮻":13865,"##찖":13866,"##뙹":13867,"##칣":13868,"##춟":13869,"##똉":13870,"##쌃":13871,"##쑛":13872,"##퇏":13873,"##섊":13874,"##쫫":13875,"##꿃":13876,"##칏":13877,"##볆":13878,"##핅":13879,"##꼻":13880,"##뻽":13881,"##뀤":13882,"##죟":13883,"##똷":13884,"##뎩":13885,"##뀼":13886,"##윁":13887,"##됝":13888,"##쀙":13889,"##핈":13890,"##밹":13891,"##쫨":13892,"##쑺":13893,"##풁":13894,"##멝":13895,"##볭":13896,"##꾩":13897,"##쐭":13898,"##쭜":13899,"##챪":13900,"##뚨":13901,"##뫤":13902,"##갢":13903,"##섏":13904,"##뻦":13905,"##녋":13906,"##꽙":13907,"##풖":13908,"##풆":13909,"##맦":13910,"##붥":13911,"##쬄":13912,"##짾":13913,"##씿":13914,"##쫰":13915,"##샔":13916,"##쿭":13917,"##뙝":13918,"##똙":13919,"##뙉":13920,"##탊":13921,"##똳":13922,"##캢":13923,"##헊":13924,"##솑":13925,"##꿤":13926,"##맩":13927,"##훏":13928,"##컙":13929,"##쐏":13930,"##퉝":13931,"##뚛":13932,"##펟":13933,"##갡":13934,"##곞":13935,"##꺋":13936,"##괱":13937,"##엛":13938,"##픱":13939,"##삦":13940,"##쵣":13941,"##쬉":13942,"##뭼":13943,"##밆":13944,"##냕":13945,"##쌏":13946,"##핾":13947,"##큮":13948,"##쮡":13949,"##꾑":13950,"##밄":13951,"##맧":13952,"##묍":13953,"##몣":13954,"##꺎":13955,"##칾":13956,"##똯":13957,"##씺":13958,"##쓧":13959,"##쐣":13960,"##퀉":13961,"##큷":13962,"##촦":13963,"##왡":13964,"##촮":13965,"##쫐":13966,"##섓":13967,"##니다":13968,"##으로":13969,"##에서":13970,"##는데":13971,"##어요":13972,"##하고":13973,"##습니다":13974,"##하는":13975,"##지만":13976,"##하게":13977,"사용":13978,"있는":13979,"##다고":13980,"##이라":13981,"##네요":13982,"##이다":13983,"있다":13984,"##해서":13985,"##아요":13986,"##들이":13987,"##까지":13988,"##어서":13989,"##했다":13990,"##면서":13991,"##입니다":13992,"##었다":13993,"##에는":13994,"##00":13995,"제품":13996,"##리고":13997,"##다는":13998,"아이":13999,"너무":14000,"##더라":14001,"##구요":14002,"생각":14003,"##에게":14004,"##렇게":14005,"##하기":14006,"들어":14007,"##부터":14008,"##적인":14009,"아니":14010,"많이":14011,"때문":14012,"ㅋㅋ":14013,"##적으로":14014,"##합니다":14015,"만들":14016,"##보다":14017,"20":14018,"사람":14019,"우리":14020,"##에도":14021,"##들은":14022,"하나":14023,"##아서":14024,"좋은":14025,"그리고":14026,"##세요":14027,"그래":14028,"##지는":14029,"##이나":14030,"##으면":14031,"하는":14032,"##하여":14033,"ㅎㅎ":14034,"##한다":14035,"##기를":14036,"구매":14037,"정말":14038,"##하면":14039,"##기도":14040,"있습니다":14041,"하고":14042,"##에요":14043,"다른":14044,"때문에":14045,"##라고":14046,"좋아":14047,"##기가":14048,"##리는":14049,"가능":14050,"같은":14051,"##더라구요":14052,"그런":14053,"##답니다":14054,"##하지":14055,"##인데":14056,"함께":14057,"##대로":14058,"경우":14059,"것이":14060,"정도":14061,"##되어":14062,"이렇게":14063,"##다가":14064,"10":14065,"느낌":14066,"바로":14067,"사이":14068,"##지고":14069,"사진":14070,"##기에":14071,"가격":14072,"##니까":14073,"##들을":14074,"맛있":14075,"##처럼":14076,"##는데요":14077,"있어요":14078,"필요":14079,"##시는":14080,"피부":14081,"##이는":14082,"대한":14083,"시간":14084,"같아요":14085,"##들의":14086,"##리를":14087,"##해요":14088,"##고요":14089,"많은":14090,"있었":14091,"그러":14092,"##스트":14093,"한다":14094,"시작":14095,"##레이":14096,"위해":14097,"오늘":14098,"이번":14099,"##도록":14100,"##하다":14101,"##이라고":14102,"조금":14103,"##리가":14104,"좋아요":14105,"##되는":14106,"201":14107,"##거나":14108,"##자인":14109,"있어서":14110,"##에서는":14111,"하지만":14112,"19":14113,"##기는":14114,"가장":14115,"그래서":14116,"따라":14117,"##라는":14118,"이런":14119,"부분":14120,"처음":14121,"##이고":14122,"다시":14123,"##가지":14124,"마음":14125,"만들어":14126,"##았다":14127,"있으":14128,"##해주":14129,"이제":14130,"합니다":14131,"사실":14132,"배송":14133,"있어":14134,"모두":14135,"지금":14136,"제가":14137,"##이스":14138,"##시면":14139,"##있는":14140,"다양":14141,"주문":14142,"없는":14143,"이상":14144,"되어":14145,"##이트":14146,"한국":14147,"이용":14148,"지난":14149,"##이지":14150,"한번":14151,"##시간":14152,"다음":14153,"##해야":14154,"디자인":14155,"저는":14156,"아주":14157,"그냥":14158,"##이에요":14159,"##이가":14160,"##였다":14161,"문제":14162,"##었어요":14163,"모습":14164,"것이다":14165,"여러":14166,"##하면서":14167,"아니라":14168,"않고":14169,"자신":14170,"##해보":14171,"##었는데":14172,"##했어요":14173,"준비":14174,"요즘":14175,"##려고":14176,"##er":14177,"있을":14178,"구입":14179,"##지를":14180,"것은":14181,"않는":14182,"##라이":14183,"효과":14184,"나오":14185,"##하며":14186,"역시":14187,"진짜":14188,"아직":14189,"만족":14190,"##주는":14191,"같이":14192,"##르고":14193,"##부분":14194,"추천":14195,"##가는":14196,"200":14197,"##다면":14198,"것을":14199,"##랜드":14200,"진행":14201,"##했는데":14202,"통해":14203,"있고":14204,"선택":14205,"##기로":14206,"##들도":14207,"특히":14208,"12":14209,"##없이":14210,"아무":14211,"것으로":14212,"##정도":14213,"##더라고요":14214,"다양한":14215,"모든":14216,"##에서도":14217,"했다":14218,"프로":14219,"되는":14220,"보고":14221,"확인":14222,"##장을":14223,"저렴":14224,"없이":14225,"##예요":14226,"##으며":14227,"##이크":14228,"##들에게":14229,"##성이":14230,"##이라는":14231,"직접":14232,"##스러":14233,"##in":14234,"##자가":14235,"##었습니다":14236,"사이즈":14237,"계속":14238,"##보고":14239,"설치":14240,"괜찮":14241,"30":14242,"##스를":14243,"이유":14244,"##사를":14245,"중요":14246,"어떤":14247,"##장이":14248,"##어나":14249,"위한":14250,"깔끔":14251,"엄청":14252,"##시고":14253,"또한":14254,"엄마":14255,"보면":14256,"보니":14257,"아닌":14258,"보여":14259,"##지도":14260,"해서":14261,"여기":14262,"방법":14263,"나는":14264,"100":14265,"있는데":14266,"##더니":14267,"물론":14268,"##으니":14269,"선물":14270,"##했던":14271,"작업":14272,"컬러":14273,"건강":14274,"##되고":14275,"일반":14276,"##ㅋㅋ":14277,"기능":14278,"상태":14279,"11":14280,"##자는":14281,"##지가":14282,"##on":14283,"내가":14284,"##스크":14285,"안전":14286,"모르":14287,"판매":14288,"완전":14289,"15":14290,"설명":14291,"찾아":14292,"부드":14293,"##성을":14294,"입니다":14295,"##력을":14296,"##았어요":14297,"하루":14298,"있었다":14299,"##드는":14300,"##겠습니다":14301,"먹어":14302,"먹고":14303,"##마다":14304,"이후":14305,"##로운":14306,"친구":14307,"이미":14308,"##제품":14309,"미국":14310,"사용할":14311,"##인지":14312,"소개":14313,"스타":14314,"##보니":14315,"##스럽":14316,"최고":14317,"##었던":14318,"된다":14319,"##랍니다":14320,"떨어":14321,"넣어":14322,"돌아":14323,"##분이":14324,"저희":14325,"##력이":14326,"##리스":14327,"서울":14328,"##주고":14329,"##장은":14330,"##상을":14331,"얼마":14332,"들어가":14333,"##이어":14334,"상품":14335,"먼저":14336,"더욱":14337,"자연":14338,"일본":14339,"세계":14340,"##an":14341,"아래":14342,"##리에":14343,"않은":14344,"##거든":14345,"##들과":14346,"여름":14347,"##트를":14348,"##된다":14349,"##전에":14350,"오래":14351,"가지고":14352,"작은":14353,"##하니":14354,"그렇":14355,"##감이":14356,"이야":14357,"##만원":14358,"올라":14359,"##정을":14360,"##이를":14361,"있다고":14362,"지역":14363,"그래도":14364,"공간":14365,"사랑":14366,"항상":14367,"대해":14368,"얼굴":14369,"기본":14370,"아기":14371,"이것":14372,"00":14373,"운동":14374,"하면":14375,"제작":14376,"그러나":14377,"현재":14378,"화장":14379,"됩니다":14380,"##거든요":14381,"상황":14382,"##지요":14383,"전문":14384,"어느":14385,"##동안":14386,"기대":14387,"대표":14388,"좋을":14389,"없다":14390,"이어":14391,"자주":14392,"##인이":14393,"추가":14394,"##셔서":14395,"보내":14396,"##정이":14397,"거의":14398,"##했습니다":14399,"고민":14400,"##리어":14401,"해요":14402,"구성":14403,"것도":14404,"일단":14405,"활용":14406,"않았":14407,"말했다":14408,"있다는":14409,"좋고":14410,"느낌이":14411,"##or":14412,"##식을":14413,"수도":14414,"##만큼":14415,"국내":14416,"살짝":14417,"브랜드":14418,"##상이":14419,"이름":14420,"어떻":14421,"##화를":14422,"개인":14423,"##수가":14424,"##ar":14425,"관련":14426,"##마트":14427,"사용하":14428,"중국":14429,"##라서":14430,"내용":14431,"##해도":14432,"전체":14433,"보이":14434,"##라인":14435,"##가능":14436,"여행":14437,"##제로":14438,"포장":14439,"어떻게":14440,"근데":14441,"알려":14442,"지나":14443,"포스":14444,"##지막":14445,"##스타":14446,"그런데":14447,"기존":14448,"해야":14449,"연결":14450,"##같은":14451,"##스로":14452,"##을때":14453,"##자를":14454,"##이블":14455,"쉽게":14456,"그렇게":14457,"##르게":14458,"##운데":14459,"18":14460,"##중에":14461,"도움":14462,"##도가":14463,"지원":14464,"느껴":14465,"위치":14466,"##이었다":14467,"##at":14468,"##까요":14469,"##en":14470,"청소":14471,"##사가":14472,"아침":14473,"만나":14474,"등을":14475,"##하는데":14476,"결과":14477,"관계":14478,"##겠어요":14479,"##졌다":14480,"간단":14481,"해주":14482,"그는":14483,"받아":14484,"##시에":14485,"##하지만":14486,"##겠다":14487,"##이랑":14488,"##져서":14489,"알아":14490,"##스가":14491,"##르는":14492,"제공":14493,"매우":14494,"##게요":14495,"만든":14496,"자동":14497,"사회":14498,"먹을":14499,"##리지":14500,"먹는":14501,"촉촉":14502,"##al":14503,"어려":14504,"##워서":14505,"##자의":14506,"그것":14507,"어디":14508,"##크림":14509,"##0년":14510,"##드를":14511,"##양이":14512,"##는지":14513,"예쁘":14514,"착용":14515,"겨울":14516,"약간":14517,"최근":14518,"무엇":14519,"마지막":14520,"방문":14521,"나온":14522,"##아지":14523,"가지":14524,"동안":14525,"##나요":14526,"힘들":14527,"##겠지만":14528,"##es":14529,"제일":14530,"##시키":14531,"않아":14532,"완성":14533,"고객":14534,"확실":14535,"기술":14536,"##르면":14537,"##어도":14538,"##하세요":14539,"여성":14540,"않을":14541,"건조":14542,"##으나":14543,"전에":14544,"##머니":14545,"##도를":14546,"##ed":14547,"##이지만":14548,"관리":14549,"##구매":14550,"##주의":14551,"오늘은":14552,"정보":14553,"##이드":14554,"최대":14555,"깨끗":14556,"발생":14557,"참고":14558,"가족":14559,"있지만":14560,"##장에":14561,"자세":14562,"##학교":14563,"##리아":14564,"##려서":14565,"##라도":14566,"새로운":14567,"이거":14568,"차량":14569,"인터":14570,"관심":14571,"걱정":14572,"정부":14573,"커피":14574,"##문에":14575,"마음에":14576,"자체":14577,"기업":14578,"사업":14579,"##지않":14580,"했는데":14581,"필요한":14582,"포스팅":14583,"어린":14584,"##으로도":14585,"위해서":14586,"나타":14587,"##치를":14588,"교육":14589,"##인트":14590,"나와":14591,"좋아하는":14592,"제거":14593,"제품을":14594,"##겠죠":14595,"비교":14596,"머리":14597,"블랙":14598,"언제":14599,"게임":14600,"스타일":14601,"##번째":14602,"##이며":14603,"##감을":14604,"사용하는":14605,"##스는":14606,"부담":14607,"##개월":14608,"##나는":14609,"##인데요":14610,"##장에서":14611,"따로":14612,"감사":14613,"##해드":14614,"16":14615,"쓰고":14616,"높은":14617,"##오는":14618,"##도로":14619,"냄새":14620,"유지":14621,"있도록":14622,"##물을":14623,"그대로":14624,"##치는":14625,"##그램":14626,"원래":14627,"좋습니다":14628,"시간이":14629,"##스러운":14630,"##구나":14631,"영화":14632,"있으니":14633,"시원":14634,"##주면":14635,"##데요":14636,"##물이":14637,"바람":14638,"##원이":14639,"##수를":14640,"##시켜":14641,"##하나":14642,"##하였":14643,"알고":14644,"그림":14645,"##립니다":14646,"에어":14647,"##사이":14648,"크게":14649,"유명":14650,"##심히":14651,"기다":14652,"##있어요":14653,"50":14654,"##므로":14655,"##하시":14656,"대부분":14657,"##하시는":14658,"색상":14659,"활동":14660,"하지":14661,"집에":14662,"고급":14663,"제품이":14664,"결국":14665,"제대로":14666,"##주세요":14667,"생각보다":14668,"음식":14669,"모델":14670,"되고":14671,"싶은":14672,"##어가":14673,"##인가":14674,"포함":14675,"충분":14676,"##만에":14677,"##대를":14678,"나왔":14679,"내려":14680,"또는":14681,"서비":14682,"14":14683,"이러":14684,"##하네요":14685,"생활":14686,"##렸다":14687,"##서는":14688,"##보다는":14689,"정도로":14690,"올려":14691,"좋네요":14692,"13":14693,"불편":14694,"만큼":14695,"하는데":14696,"분위":14697,"##10":14698,"##it":14699,"스트":14700,"자신의":14701,"25":14702,"운영":14703,"##제를":14704,"##ㅎㅎ":14705,"작품":14706,"##었고":14707,"해도":14708,"위에":14709,"##통령":14710,"적당":14711,"이건":14712,"##ic":14713,"같다":14714,"##스터":14715,"그럼":14716,"저도":14717,"사람이":14718,"넣고":14719,"보통":14720,"##는다":14721,"##았습니다":14722,"##식으로":14723,"연구":14724,"보다":14725,"##사는":14726,"올해":14727,"없어":14728,"##아이":14729,"상당":14730,"##거리":14731,"##래도":14732,"##적이":14733,"스마트":14734,"##하다고":14735,"계획":14736,"자기":14737,"예쁜":14738,"##할때":14739,"비슷":14740,"모양":14741,"중요한":14742,"##이션":14743,"##혔다":14744,"##원을":14745,"개발":14746,"##한테":14747,"정리":14748,"맛이":14749,"도착":14750,"신경":14751,"생각이":14752,"##요일":14753,"있으며":14754,"어울":14755,"있게":14756,"보관":14757,"##트로":14758,"매일":14759,"##것도":14760,"##보면":14761,"기억":14762,"대통령":14763,"들고":14764,"이동":14765,"표현":14766,"다니":14767,"기준":14768,"열심히":14769,"##스템":14770,"없고":14771,"맘에":14772,"##님이":14773,"##나라":14774,"보호":14775,"##용으로":14776,"##줍니다":14777,"##같아요":14778,"##았는데":14779,"주는":14780,"바닥":14781,"의미":14782,"##점이":14783,"##보는":14784,"경제":14785,"같습니다":14786,"소재":14787,"재미":14788,"##00원":14789,"##시아":14790,"당시":14791,"특별":14792,"부드럽":14793,"##테리어":14794,"##장히":14795,"##지지":14796,"학생":14797,"##기의":14798,"보이는":14799,"전혀":14800,"17":14801,"종류":14802,"일이":14803,"환경":14804,"##20":14805,"가져":14806,"##어야":14807,"조절":14808,"카페":14809,"꼼꼼":14810,"기록":14811,"##st":14812,"충전":14813,"##자기":14814,"결정":14815,"##상으로":14816,"##군요":14817,"제품은":14818,"##cm":14819,"##사의":14820,"꾸준":14821,"때는":14822,"주변":14823,"##되었다":14824,"##분에":14825,"##디어":14826,"##이터":14827,"마무":14828,"좋다":14829,"사용하고":14830,"##이기":14831,"##점을":14832,"##여서":14833,"따뜻":14834,"훨씬":14835,"남자":14836,"우선":14837,"있답니다":14838,"할인":14839,"부드러":14840,"편리":14841,"24":14842,"장착":14843,"저녁":14844,"휴대":14845,"##때문에":14846,"이번에":14847,"없어서":14848,"날씨":14849,"등의":14850,"움직":14851,"내부":14852,"편안":14853,"##료를":14854,"궁금":14855,"출시":14856,"간편":14857,"있던":14858,"##리로":14859,"##있어서":14860,"##니당":14861,"##잖아요":14862,"교체":14863,"국가":14864,"쓰는":14865,"##트가":14866,"발라":14867,"빨리":14868,"굉장히":14869,"##진다":14870,"사고":14871,"##인다":14872,"가능한":14873,"##사용":14874,"밝혔다":14875,"##하신":14876,"챙겨":14877,"##레스":14878,"이게":14879,"되었":14880,"##됩니다":14881,"##이죠":14882,"행복":14883,"느끼":14884,"##치가":14885,"##놓고":14886,"혼자":14887,"어렵":14888,"##하기도":14889,"뭔가":14890,"여자":14891,"삼성":14892,"지속":14893,"##업을":14894,"생산":14895,"가는":14896,"##일이":14897,"커버":14898,"안에":14899,"##봤는데":14900,"##거운":14901,"국민":14902,"남편":14903,"##대가":14904,"예정":14905,"가까":14906,"화이트":14907,"블루":14908,"##됐다":14909,"성공":14910,"기분":14911,"인간":14912,"##로그":14913,"세탁":14914,"잡아":14915,"##전거":14916,"##메라":14917,"때문이다":14918,"##라운":14919,"얼마나":14920,"일부":14921,"##위를":14922,"대신":14923,"나서":14924,"40":14925,"하기":14926,"##용품":14927,"참여":14928,"필수":14929,"앞으로":14930,"##너무":14931,"프리":14932,"부산":14933,"그녀":14934,"##인의":14935,"이벤":14936,"적용":14937,"##el":14938,"존재":14939,"학교":14940,"##장의":14941,"##스틱":14942,"##했고":14943,"##한다고":14944,"역할":14945,"있기":14946,"그리":14947,"##지에":14948,"평소":14949,"확실히":14950,"해결":14951,"th":14952,"경험":14953,"##음을":14954,"살아":14955,"미니":14956,"##이면":14957,"미리":14958,"부족":14959,"##만한":14960,"집에서":14961,"눈에":14962,"시공":14963,"되면":14964,"대해서":14965,"다녀":14966,"##개를":14967,"##ou":14968,"##자마":14969,"나오는":14970,"강아지":14971,"##이라서":14972,"##밖에":14973,"되었다":14974,"가운데":14975,"그의":14976,"##위원":14977,"##함을":14978,"##들어":14979,"##명이":14980,"##mm":14981,"인터넷":14982,"형태":14983,"배송도":14984,"##이라면":14985,"자유":14986,"##로는":14987,"##스의":14988,"##선을":14989,"현대":14990,"이를":14991,"##트는":14992,"귀여":14993,"##드가":14994,"##구를":14995,"이야기":14996,"이해":14997,"모습을":14998,"##겠다고":14999,"##et":15000,"나가":15001,"##우는":15002,"받고":15003,"베이":15004,"가볍":15005,"그런지":15006,"##스럽게":15007,"##제가":15008,"오랜":15009,"##되지":15010,"사람들이":15011,"##식이":15012,"자극":15013,"##디오":15014,"##더라도":15015,"다만":15016,"등장":15017,"##이프":15018,"문화":15019,"##일을":15020,"##같이":15021,"이러한":15022,"##대에":15023,"보는":15024,"말씀":15025,"있는데요":15026,"전기":15027,"소비":15028,"수준":15029,"199":15030,"##하였다":15031,"가방":15032,"##께서":15033,"받은":15034,"##수는":15035,"이날":15036,"크림":15037,"##함이":15038,"경기":15039,"빠른":15040,"수가":15041,"하면서":15042,"##라면":15043,"좋아서":15044,"분들":15045,"만드는":15046,"##자마자":15047,"맞는":15048,"촬영":15049,"##지로":15050,"##향을":15051,"수분":15052,"##인을":15053,"아마":15054,"자리":15055,"##드로":15056,"회사":15057,"##위에":15058,"성분":15059,"꾸준히":15060,"##ol":15061,"##가락":15062,"나무":15063,"공격":15064,"아이템":15065,"해당":15066,"방송":15067,"물건":15068,"마련":15069,"하니":15070,"##8년":15071,"문의":15072,"사용해":15073,"핑크":15074,"##없는":15075,"영양":15076,"별로":15077,"##어난":15078,"이쁘":15079,"지난해":15080,"정확":15081,"가득":15082,"##했지만":15083,"오른":15084,"맞춰":15085,"##하던":15086,"다이":15087,"##자로":15088,"##센터":15089,"이곳":15090,"##수록":15091,"##되었":15092,"##기업":15093,"이루":15094,"갖고":15095,"##드리":15096,"프로그램":15097,"##하실":15098,"마스크":15099,"##쪽에":15100,"##질이":15101,"음악":15102,"케이스":15103,"##하려":15104,"##하다는":15105,"고정":15106,"않았다":15107,"순간":15108,"##다니":15109,"달라":15110,"포인트":15111,"인테리어":15112,"있으면":15113,"##량이":15114,"##했다고":15115,"하네요":15116,"사용하기":15117,"구조":15118,"과정":15119,"전화":15120,"##치고":15121,"비해":15122,"##기와":15123,"##ing":15124,"##와서":15125,"발견":15126,"##원은":15127,"##나무":15128,"분들은":15129,"체험":15130,"마무리":15131,"##한데":15132,"핸드":15133,"자동차":15134,"##회의":15135,"##기만":15136,"분들이":15137,"여기서":15138,"##으면서":15139,"##하시면":15140,"##성비":15141,"##리즈":15142,"장난":15143,"메뉴":15144,"##전을":15145,"도시":15146,"살펴":15147,"제주":15148,"않아서":15149,"##어를":15150,"##우스":15151,"아이가":15152,"오후":15153,"##프로":15154,"빠르고":15155,"후기":15156,"라고":15157,"##as":15158,"따라서":15159,"##가를":15160,"아쉬":15161,"물을":15162,"에서":15163,"부모":15164,"실제로":15165,"시스템":15166,"중심":15167,"등이":15168,"대학":15169,"하다":15170,"##개의":15171,"정치":15172,"집중":15173,"향이":15174,"천연":15175,"##만의":15176,"##아주":15177,"대구":15178,"먹기":15179,"주방":15180,"##가가":15181,"우리가":15182,"##le":15183,"유아":15184,"##회를":15185,"##봐야":15186,"##대의":15187,"##5년":15188,"##7년":15189,"##두고":15190,"중간":15191,"아이들이":15192,"것이라고":15193,"##사이즈":15194,"##봤어요":15195,"없을":15196,"21":15197,"##re":15198,"검색":15199,"##롭게":15200,"말을":15201,"좋았":15202,"아이들":15203,"달리":15204,"##기고":15205,"##걸이":15206,"##명을":15207,"##ac":15208,"##히려":15209,"사진을":15210,"##소를":15211,"업체":15212,"##상의":15213,"정신":15214,"##구가":15215,"##리의":15216,"자전거":15217,"경우가":15218,"편하게":15219,"두고":15220,"안정":15221,"어린이":15222,"##나게":15223,"##품을":15224,"##스에":15225,"##동을":15226,"##ml":15227,"주고":15228,"원하는":15229,"##먹고":15230,"##50":15231,"##9년":15232,"선수":15233,"##가격":15234,"##비를":15235,"##으로는":15236,"해외":15237,"찍어":15238,"##상에":15239,"바라":15240,"##하거나":15241,"##려요":15242,"가격이":15243,"부분이":15244,"##질을":15245,"바디":15246,"##화가":15247,"##사진":15248,"##한다는":15249,"넉넉":15250,"##린다":15251,"##관리":15252,"##환경":15253,"아파":15254,"서로":15255,"##6년":15256,"##om":15257,"##었지만":15258,"##배송":15259,"맛있는":15260,"인해":15261,"효과가":15262,"주말":15263,"믿고":15264,"아름":15265,"##이크업":15266,"##이도":15267,"투자":15268,"했어요":15269,"##페이지":15270,"가을":15271,"이에":15272,"##연히":15273,"지방":15274,"증가":15275,"##내는":15276,"##준다":15277,"##원의":15278,"헤어":15279,"##임을":15280,"##품이":15281,"리뷰":15282,"##나고":15283,"깔끔하게":15284,"##수도":15285,"네이":15286,"다르":15287,"올리":15288,"고양이":15289,"사건":15290,"##장고":15291,"23":15292,"시즌":15293,"재료":15294,"수납":15295,"##면에":15296,"##인은":15297,"저렴한":15298,"문제가":15299,"강화":15300,"##릭터":15301,"한다고":15302,"가성비":15303,"무료":15304,"##프트":15305,"오히려":15306,"재구매":15307,"조립":15308,"##이네요":15309,"##해지":15310,"피부에":15311,"입고":15312,"00원":15313,"전자":15314,"tv":15315,"신기":15316,"쇼핑":15317,"##부를":15318,"버튼":15319,"발표":15320,"오는":15321,"가서":15322,"않게":15323,"##is":15324,"사라":15325,"##장으로":15326,"##가루":15327,"22":15328,"##하자":15329,"카메라":15330,"##우고":15331,"하게":15332,"좋다고":15333,"하여":15334,"플레이":15335,"예약":15336,"그때":15337,"다이어":15338,"##로나":15339,"특징":15340,"꺼내":15341,"신발":15342,"##방법":15343,"##am":15344,"아니다":15345,"사무":15346,"중에":15347,"##드릴":15348,"없었다":15349,"말이":15350,"라는":15351,"##포츠":15352,"혹시":15353,"위험":15354,"도움이":15355,"전국":15356,"오일":15357,"튼튼":15358,"##리도":15359,"주로":15360,"##교육":15361,"않는다":15362,"##4년":15363,"##거라":15364,"상당히":15365,"맛있게":15366,"다들":15367,"##계를":15368,"기름":15369,"##과는":15370,"##이에":15371,"##했을":15372,"in":15373,"타고":15374,"안심":15375,"시켜":15376,"##ion":15377,"라이":15378,"시간을":15379,"완벽":15380,"##있고":15381,"##업체":15382,"##퓨터":15383,"##쪽으로":15384,"기간":15385,"동시에":15386,"##2년":15387,"결혼":15388,"고려":15389,"##정한":15390,"##대는":15391,"##께요":15392,"##도의":15393,"유리":15394,"후보":15395,"구경":15396,"아무래도":15397,"##움을":15398,"감독":15399,"##도는":15400,"충분히":15401,"##났다":15402,"##겠다는":15403,"##타민":15404,"블로그":15405,"매트":15406,"무게":15407,"스티":15408,"캐릭터":15409,"이는":15410,"##되면":15411,"잘못":15412,"덕분에":15413,"제조":15414,"오픈":15415,"실내":15416,"##향이":15417,"##렌징":15418,"##세트":15419,"뚜껑":15420,"흡수":15421,"##이라도":15422,"아버":15423,"##있어":15424,"주의":15425,"##길래":15426,"혹은":15427,"##서를":15428,"파우":15429,"##줘야":15430,"북한":15431,"##기간":15432,"아빠":15433,"벌써":15434,"각종":15435,"피해":15436,"남아":15437,"##해진":15438,"연출":15439,"무슨":15440,"##왔다":15441,"우리는":15442,"유통":15443,"당신":15444,"st":15445,"국제":15446,"캠핑":15447,"##셔야":15448,"##할수":15449,"##걸로":15450,"##면을":15451,"실제":15452,"일어나":15453,"선생":15454,"노력":15455,"##셔도":15456,"##님의":15457,"##있다":15458,"해보":15459,"있었는데":15460,"경쟁":15461,"하이":15462,"##3년":15463,"##가서":15464,"성장":15465,"##어진":15466,"가격도":15467,"각각":15468,"노래":15469,"##원에":15470,"무엇보다":15471,"빠르게":15472,"##워요":15473,"##라마":15474,"받을":15475,"스스로":15476,"##il":15477,"많아서":15478,"하며":15479,"60":15480,"2개":15481,"맛있어요":15482,"##이로":15483,"##문을":15484,"##겠네요":15485,"##였습니다":15486,"피부가":15487,"the":15488,"예상":15489,"워낙":15490,"만들기":15491,"##바로":15492,"요구":15493,"분리":15494,"##일에":15495,"전시":15496,"하시":15497,"상대":15498,"##1년":15499,"새로":15500,"##생활":15501,"많아":15502,"밖에":15503,"##케어":15504,"##별로":15505,"##트에":15506,"전용":15507,"##피부":15508,"예뻐":15509,"같아서":15510,"담아":15511,"나름":15512,"##어보":15513,"##리기":15514,"##번에":15515,"저렴하게":15516,"성능":15517,"##지역":15518,"강력":15519,"##내고":15520,"플라":15521,"상담":15522,"타입":15523,"다행":15524,"##들로":15525,"1년":15526,"주인":15527,"가끔":15528,"아니고":15529,"##ot":15530,"##나서":15531,"화장실":15532,"공개":15533,"##금을":15534,"인천":15535,"넘어":15536,"##듯이":15537,"##음이":15538,"가벼":15539,"달려":15540,"있네요":15541,"##갔다":15542,"보기":15543,"##점은":15544,"영상":15545,"행사":15546,"금방":15547,"보인다":15548,"서비스":15549,"##이니":15550,"후에":15551,"일을":15552,"개선":15553,"가진":15554,"##안을":15555,"##제는":15556,"대비":15557,"##리면":15558,"바이":15559,"드라이":15560,"##러스":15561,"번째":15562,"여러분":15563,"으로":15564,"같아":15565,"와서":15566,"##려면":15567,"##다보니":15568,"##박스":15569,"세척":15570,"##단계":15571,"완료":15572,"현실":15573,"유명한":15574,"##아가":15575,"##지게":15576,"##단을":15577,"가정":15578,"##지의":15579,"도와":15580,"나중에":15581,"절대":15582,"사는":15583,"##기능":15584,"곳이":15585,"나라":15586,"골프":15587,"드러":15588,"추진":15589,"##사업":15590,"단순":15591,"##셨어요":15592,"##명의":15593,"좋았어요":15594,"##색이":15595,"이전":15596,"강조":15597,"규모":15598,"작성":15599,"호텔":15600,"수업":15601,"##들에":15602,"이유는":15603,"##였어요":15604,"따르면":15605,"하늘":15606,"테이블":15607,"##회가":15608,"말고":15609,"##과의":15610,"##보드":15611,"갑자기":15612,"인정":15613,"주차":15614,"배우":15615,"평가":15616,"보습":15617,"있었어요":15618,"그동안":15619,"맛도":15620,"##의를":15621,"##좋은":15622,"신청":15623,"##먹는":15624,"거실":15625,"분석":15626,"컴퓨터":15627,"되지":15628,"잠시":15629,"스마트폰":15630,"점점":15631,"최소":15632,"괜찮은":15633,"차지":15634,"##더군요":15635,"##봅니다":15636,"이벤트":15637,"##로우":15638,"##로도":15639,"했지만":15640,"공식":15641,"경찰":15642,"##감도":15643,"놓고":15644,"##다운":15645,"먹으면":15646,"##ro":15647,"수영":15648,"민주":15649,"##안에":15650,"전통":15651,"##사지":15652,"쿠션":15653,"외국":15654,"안녕":15655,"역할을":15656,"시장":15657,"메이크업":15658,"##부는":15659,"##해주는":15660,"자꾸":15661,"것입니다":15662,"##있습니다":15663,"있다면":15664,"한다는":15665,"산업":15666,"했습니다":15667,"한편":15668,"택배":15669,"500":15670,"##비가":15671,"##전히":15672,"생각을":15673,"마치":15674,"##터를":15675,"분명":15676,"못하고":15677,"28":15678,"가능합니다":15679,"##이었":15680,"샴푸":15681,"테스트":15682,"##리티":15683,"맞게":15684,"함유":15685,"5월":15686,"##있게":15687,"##기한":15688,"##원에서":15689,"도움을":15690,"요리":15691,"대형":15692,"생기":15693,"##어주":15694,"26":15695,"동일":15696,"체크":15697,"##리카":15698,"##움이":15699,"lg":15700,"그린":15701,"##았던":15702,"카드":15703,"미세":15704,"아닐":15705,"안되":15706,"비타민":15707,"마찬":15708,"##고기":15709,"사람은":15710,"개인적으로":15711,"나의":15712,"없어요":15713,"##이예요":15714,"##여행":15715,"너무나":15716,"홈페이지":15717,"부드러운":15718,"방향":15719,"없습니다":15720,"바다":15721,"공부":15722,"여유":15723,"않아요":15724,"유럽":15725,"##30":15726,"##드립니다":15727,"비롯":15728,"제외":15729,"받는":15730,"비슷한":15731,"##피스":15732,"공연":15733,"3월":15734,"게다가":15735,"##드시":15736,"마찬가지":15737,"##보기":15738,"##가고":15739,"안내":15740,"27":15741,"가죽":15742,"못한":15743,"##이란":15744,"##어져":15745,"중앙":15746,"변화":15747,"효과를":15748,"##성과":15749,"10월":15750,"공급":15751,"기분이":15752,"비싸":15753,"느낄":15754,"목표":15755,"##량을":15756,"##하다가":15757,"지금은":15758,"차이가":15759,"##지와":15760,"비용":15761,"눌러":15762,"##조건":15763,"##ig":15764,"##상태":15765,"##커버":15766,"샤워":15767,"##성분":15768,"아쉽":15769,"알게":15770,"##것이":15771,"##으로써":15772,"요렇게":15773,"까지":15774,"##공간":15775,"주장":15776,"예전":15777,"사용하면":15778,"정책":15779,"6월":15780,"##리와":15781,"지켜":15782,"우리나라":15783,"led":15784,"##해주세요":15785,"앞에":15786,"붙여":15787,"##이너":15788,"##시죠":15789,"##맛이":15790,"조사":15791,"냉장고":15792,"방식":15793,"물에":15794,"온라인":15795,"##다른":15796,"렌즈":15797,"둘러":15798,"##스토":15799,"시리즈":15800,"이때":15801,"##관이":15802,"프랑":15803,"##물로":15804,"양념":15805,"us":15806,"4월":15807,"##가요":15808,"##장님":15809,"어머니":15810,"시민":15811,"정상":15812,"직원":15813,"역사":15814,"주요":15815,"조선":15816,"##면이":15817,"적극":15818,"자신이":15819,"##시장":15820,"9월":15821,"우유":15822,"과거":15823,"코로나":15824,"##권을":15825,"김치":15826,"198":15827,"공동":15828,"타이":15829,"가슴":15830,"##kg":15831,"무선":15832,"매력":15833,"##가의":15834,"클렌징":15835,"작년":15836,"##ec":15837,"스테":15838,"##자에":15839,"바꾸":15840,"미래":15841,"스크":15842,"##느냐":15843,"반응":15844,"##도에":15845,"연락":15846,"스피":15847,"발전":15848,"##자와":15849,"섭취":15850,"##시를":15851,"11월":15852,"##이의":15853,"개봉":15854,"그려":15855,"##사로":15856,"##국의":15857,"바르":15858,"처리":15859,"배터":15860,"노트":15861,"금융":15862,"##으니까":15863,"뿐만":15864,"##하도록":15865,"##문화":15866,"##봐요":15867,"생겼":15868,"다가":15869,"인증":15870,"##차를":15871,"아프":15872,"##에선":15873,"부탁":15874,"신랑":15875,"##오일":15876,"분야":15877,"자랑":15878,"친절":15879,"##효과":15880,"##였는데":15881,"등에":15882,"사용해보":15883,"##만을":15884,"주민":15885,"귀여운":15886,"많다":15887,"##부가":15888,"##하면서도":15889,"공기":15890,"손으로":15891,"##러블":15892,"이웃":15893,"의해":15894,"##주시":15895,"##ad":15896,"은은":15897,"설정":15898,"##이야":15899,"신선":15900,"어려운":15901,"##놀이":15902,"남은":15903,"동물":15904,"##수의":15905,"독일":15906,"스킨":15907,"전망":15908,"7월":15909,"원단":15910,"프레":15911,"클릭":15912,"제품으로":15913,"어찌":15914,"8월":15915,"외부":15916,"인기":15917,"강한":15918,"광고":15919,"##집니다":15920,"교환":15921,"스토":15922,"12월":15923,"레이":15924,"수입":15925,"들어간":15926,"of":15927,"지금까지":15928,"##히는":15929,"##어로":15930,"##저귀":15931,"했던":15932,"##운동":15933,"##id":15934,"##바닥":15935,"경우에는":15936,"외출":15937,"느낌을":15938,"생긴":15939,"들어서":15940,"적이":15941,"깔끔한":15942,"물이":15943,"##소가":15944,"손잡":15945,"있었던":15946,"같네요":15947,"##이렇게":15948,"##아야":15949,"##하셨":15950,"치료":15951,"최초":15952,"라인":15953,"##정보":15954,"##어버":15955,"대체":15956,"바꿔":15957,"가구":15958,"##상은":15959,"이야기를":15960,"스포츠":15961,"##였던":15962,"손에":15963,"않아도":15964,"걸어":15965,"때도":15966,"빠져":15967,"박스":15968,"예쁘게":15969,"얘기":15970,"심플":15971,"##시가":15972,"싶어":15973,"솔직":15974,"##지면":15975,"패션":15976,"변경":15977,"어깨":15978,"##자들이":15979,"관계자는":15980,"바랍니다":15981,"##은행":15982,"드는":15983,"세트":15984,"바뀌":15985,"조합":15986,"앉아":15987,"##으신":15988,"나도":15989,"##제거":15990,"##상품":15991,"하나씩":15992,"많고":15993,"##대한":15994,"##심을":15995,"##시설":15996,"##bs":15997,"##관을":15998,"우수":15999,"마시":16000,"최고의":16001,"##유의":16002,"##청소":16003,"사서":16004,"방지":16005,"크리스":16006,"치즈":16007,"않습니다":16008,"쓰던":16009,"가게":16010,"것처럼":16011,"##많은":16012,"##약을":16013,"##든지":16014,"70":16015,"본격":16016,"맞추":16017,"작업을":16018,"글로":16019,"없다고":16020,"##로부터":16021,"기념":16022,"같은데":16023,"거기":16024,"차단":16025,"부착":16026,"##님들":16027,"##졌어요":16028,"동생":16029,"어제":16030,"300":16031,"##자리":16032,"롯데":16033,"##력은":16034,"그랬":16035,"투명":16036,"##산을":16037,"소리":16038,"연습":16039,"##바이":16040,"아무리":16041,"##성은":16042,"등등":16043,"##억원":16044,"상승":16045,"케이블":16046,"전부":16047,"힘을":16048,"오전":16049,"##드렸":16050,"프리미":16051,"편하고":16052,"만족합니다":16053,"작동":16054,"##이기도":16055,"네이버":16056,"##해지는":16057,"마음이":16058,"##등학교":16059,"녀석":16060,"있지":16061,"돌려":16062,"영향을":16063,"즐길":16064,"##사람":16065,"곳에":16066,"옆에":16067,"앞서":16068,"에너":16069,"##었을":16070,"왼쪽":16071,"유용":16072,"귀엽":16073,"엄마가":16074,"매장":16075,"스티커":16076,"그럴":16077,"##산업":16078,"##하더라구요":16079,"##수로":16080,"##도우":16081,"인생":16082,"가격에":16083,"레드":16084,"샀는데":16085,"##점에서":16086,"클래":16087,"구매했어요":16088,"##했다는":16089,"##에게는":16090,"##개가":16091,"##추천":16092,"##면서도":16093,"브러":16094,"않을까":16095,"##us":16096,"완전히":16097,"손을":16098,"부분을":16099,"조금씩":16100,"가격은":16101,"##매트":16102,"중고":16103,"가볍게":16104,"##연구":16105,"예방":16106,"업무":16107,"##하려고":16108,"꼼꼼하게":16109,"양이":16110,"##력도":16111,"관광":16112,"받았":16113,"##놓은":16114,"누구":16115,"##느라":16116,"귀찮":16117,"##니스":16118,"##까지는":16119,"29":16120,"##니아":16121,"##ay":16122,"##거같아요":16123,"스프":16124,"조직":16125,"##시키는":16126,"간식":16127,"마음을":16128,"부드럽게":16129,"나머":16130,"않다":16131,"한달":16132,"용량":16133,"80":16134,"여기에":16135,"확대":16136,"조심":16137,"##카드":16138,"##한다면":16139,"##os":16140,"속에":16141,"소개해드":16142,"언니":16143,"기초":16144,"부분은":16145,"드라마":16146,"##아도":16147,"깨끗하게":16148,"힘든":16149,"지하":16150,"뿌려":16151,"##nd":16152,"##위가":16153,"주세요":16154,"##장과":16155,"단계":16156,"도전":16157,"불구":16158,"##와의":16159,"사용한":16160,"있죠":16161,"전달":16162,"##컬러":16163,"##지기":16164,"선정":16165,"매번":16166,"구멍":16167,"건물":16168,"에어컨":16169,"##플레이":16170,"지적":16171,"대한민":16172,"몸에":16173,"##학생":16174,"나누":16175,"반대":16176,"판단":16177,"따뜻한":16178,"이제는":16179,"시절":16180,"##이랍니다":16181,"##이라며":16182,"1월":16183,"잡고":16184,"오랜만에":16185,"그가":16186,"##사에":16187,"부터":16188,"##적이고":16189,"아들":16190,"##성에":16191,"##ow":16192,"드디어":16193,"색깔":16194,"부드럽고":16195,"##하죠":16196,"##품으로":16197,"여전히":16198,"##건데":16199,"가면":16200,"이용해":16201,"##른다":16202,"등으로":16203,"입장":16204,"반드시":16205,"36":16206,"없다는":16207,"맛집":16208,"패키":16209,"욕실":16210,"##대비":16211,"##od":16212,"내년":16213,"되는데":16214,"주인공":16215,"아니면":16216,"##에서의":16217,"##로서":16218,"때마다":16219,"오른쪽":16220,"헤드":16221,"냉동":16222,"뒤에":16223,"관한":16224,"남성":16225,"다이어트":16226,"열어":16227,"침대":16228,"##오고":16229,"여러가지":16230,"흔들":16231,"##하기로":16232,"##일까지":16233,"이사":16234,"##전자":16235,"근처":16236,"그게":16237,"구워":16238,"사용이":16239,"##이자":16240,"##체를":16241,"패턴":16242,"전쟁":16243,"공유":16244,"바르고":16245,"줄어":16246,"##되었습니다":16247,"##기술":16248,"##지털":16249,"특별한":16250,"고기":16251,"좀더":16252,"##왔어요":16253,"확보":16254,"일주":16255,"다리":16256,"목소":16257,"##모차":16258,"##19":16259,"마을":16260,"##시피":16261,"##판을":16262,"##체가":16263,"##던데":16264,"실패":16265,"##위로":16266,"브라":16267,"좋더라구요":16268,"요즘은":16269,"기능을":16270,"슈퍼":16271,"##선이":16272,"비싼":16273,"민감":16274,"만들고":16275,"지도":16276,"아파트":16277,"과일":16278,"평균":16279,"##때는":16280,"당연히":16281,"##세를":16282,"##만이":16283,"시험":16284,"##하였습니다":16285,"맛은":16286,"##기관":16287,"대전":16288,"##운드":16289,"##회에":16290,"위해서는":16291,"##문의":16292,"##사와":16293,"##주로":16294,"##데이":16295,"선보":16296,"신고":16297,"pc":16298,"##보세요":16299,"필요가":16300,"##주를":16301,"있었습니다":16302,"##거에요":16303,"냄새가":16304,"##스티":16305,"##ch":16306,"아가":16307,"않도록":16308,"그만큼":16309,"넘나":16310,"유기":16311,"##정말":16312,"##세계":16313,"책임":16314,"##받은":16315,"2월":16316,"영국":16317,"##격을":16318,"못하는":16319,"##정에":16320,"넓은":16321,"기타":16322,"프리미엄":16323,"표시":16324,"쓰기":16325,"아니지만":16326,"1일":16327,"이쁜":16328,"통해서":16329,"풍부":16330,"과학":16331,"않으면":16332,"##지어":16333,"스파":16334,"202":16335,"반려":16336,"다음에":16337,"##사항":16338,"##에만":16339,"최대한":16340,"두번째":16341,"출발":16342,"동영":16343,"##이상":16344,"책을":16345,"모습이":16346,"자체가":16347,"##ent":16348,"##스카":16349,"##스와":16350,"##분들":16351,"우려":16352,"장점":16353,"향도":16354,"점이":16355,"입을":16356,"뛰어":16357,"##감은":16358,"노동":16359,"사람들은":16360,"제품입니다":16361,"선거":16362,"몸을":16363,"닦아":16364,"갈아":16365,"반복":16366,"간단하게":16367,"실시":16368,"화장품":16369,"##있는데":16370,"##가기":16371,"되었습니다":16372,"2년":16373,"입술":16374,"가까운":16375,"나눠":16376,"##부의":16377,"sk":16378,"불안":16379,"##다며":16380,"된다고":16381,"##소한":16382,"만약":16383,"불구하고":16384,"아는":16385,"메인":16386,"사무실":16387,"두피":16388,"있어야":16389,"따른":16390,"##것같아요":16391,"##티슈":16392,"사과":16393,"품질":16394,"보조":16395,"##어용":16396,"##그레이":16397,"##크를":16398,"##리트":16399,"##을까":16400,"듣고":16401,"무조건":16402,"경기도":16403,"35":16404,"##리콘":16405,"하나의":16406,"날씨가":16407,"행동":16408,"##보호":16409,"안전하게":16410,"아침에":16411,"다르게":16412,"장소":16413,"스위":16414,"##작업":16415,"트러블":16416,"친환경":16417,"적은":16418,"멋진":16419,"요청":16420,"않지만":16421,"##ip":16422,"크기":16423,"예술":16424,"##었다고":16425,"입구":16426,"에센":16427,"##시다":16428,"거예요":16429,"종이":16430,"##션을":16431,"눈이":16432,"높아":16433,"##냐고":16434,"##키는":16435,"##패드":16436,"붙어":16437,"##적을":16438,"##시킨":16439,"##계가":16440,"##나마":16441,"선호":16442,"##구마":16443,"##미가":16444,"3일":16445,"##느낌":16446,"없지만":16447,"##문이":16448,"##쓰고":16449,"##가구":16450,"노트북":16451,"##하러":16452,"안녕하세요":16453,"사이에":16454,"샘플":16455,"둘째":16456,"이불":16457,"##씨는":16458,"##정은":16459,"디자인이":16460,"자세히":16461,"##아니":16462,"등록":16463,"영어":16464,"##되면서":16465,"속에서":16466,"##스테":16467,"어른":16468,"인사":16469,"깔끔하고":16470,"전문가":16471,"언급":16472,"전략":16473,"어울리는":16474,"언제나":16475,"usb":16476,"고무":16477,"싶어요":16478,"31":16479,"정도의":16480,"##려는":16481,"넣어서":16482,"##냈다":16483,"계란":16484,"##ag":16485,"경영":16486,"관심을":16487,"##랐다":16488,"하시는":16489,"1인":16490,"들어요":16491,"남겨":16492,"보시면":16493,"피부를":16494,"찾는":16495,"이상의":16496,"다양하게":16497,"화려":16498,"지지":16499,"필름":16500,"왔다":16501,"자연스럽게":16502,"##원으로":16503,"젊은":16504,"건설":16505,"싫어":16506,"핵심":16507,"##미를":16508,"##카페":16509,"이하":16510,"##시로":16511,"시설":16512,"##쇼핑":16513,"음료":16514,"##웠다":16515,"##라스":16516,"##일리":16517,"위생":16518,"나를":16519,"##용량":16520,"##성도":16521,"누가":16522,"멀티":16523,"소리가":16524,"##좋아요":16525,"##회는":16526,"반찬":16527,"건강한":16528,"시원한":16529,"마감":16530,"보이지":16531,"담당":16532,"##ut":16533,"베이스":16534,"광주":16535,"엔진":16536,"잠깐":16537,"간편하게":16538,"메모":16539,"경우는":16540,"그레이":16541,"##물에":16542,"수는":16543,"비닐":16544,"##op":16545,"일상":16546,"전원":16547,"##율이":16548,"점심":16549,"##12":16550,"디지털":16551,"허리":16552,"##프레":16553,"30분":16554,"요거":16555,"생겨":16556,"##좋아":16557,"분위기":16558,"##회에서":16559,"##르기":16560,"가로":16561,"나면":16562,"3개":16563,"##형을":16564,"두께":16565,"무난":16566,"조리":16567,"수밖에":16568,"재질":16569,"##니터":16570,"##임이":16571,"##끄러":16572,"왔어요":16573,"##하시고":16574,"운전":16575,"출신":16576,"##em":16577,"길이":16578,"##번호":16579,"싶어서":16580,"##고가":16581,"필터":16582,"##개발":16583,"##친구":16584,"최종":16585,"관심이":16586,"##만족":16587,"야채":16588,"##80":16589,"참가":16590,"##드의":16591,"잘라":16592,"나올":16593,"그릇":16594,"불러":16595,"감사합니다":16596,"거래":16597,"마지막으로":16598,"세상":16599,"배송이":16600,"있음":16601,"##im":16602,"영업":16603,"정보를":16604,"##법을":16605,"##타입":16606,"조건":16607,"위로":16608,"날이":16609,"##곳에":16610,"거치":16611,"장비":16612,"##ur":16613,"너무너무":16614,"##렌즈":16615,"이번에는":16616,"간단한":16617,"##화된":16618,"거리":16619,"채워":16620,"##형이":16621,"흘러":16622,"싶다":16623,"참고로":16624,"90":16625,"금액":16626,"전체적으로":16627,"##목을":16628,"출산":16629,"##트의":16630,"기존에":16631,"가능성이":16632,"맛을":16633,"##뿐만":16634,"설계":16635,"##물은":16636,"파워":16637,"제시":16638,"힘이":16639,"더불":16640,"##져요":16641,"데이터":16642,"식사":16643,"##것같":16644,"##주문":16645,"2차":16646,"##냄새":16647,"##일은":16648,"예전에":16649,"##증을":16650,"감소":16651,"##케이스":16652,"이뻐":16653,"브라운":16654,"##나면":16655,"##외선":16656,"봐도":16657,"나이":16658,"있는지":16659,"들어가는":16660,"##력과":16661,"목욕":16662,"워터":16663,"##고는":16664,"먹으":16665,"##전이":16666,"줍니다":16667,"##치로":16668,"3년":16669,"이와":16670,"하더라구요":16671,"##렌지":16672,"위치한":16673,"포기":16674,"##iv":16675,"아름다운":16676,"##건지":16677,"##ap":16678,"##경을":16679,"인식":16680,"유일":16681,"##신을":16682,"진정":16683,"낮은":16684,"아예":16685,"만에":16686,"취향":16687,"##생각":16688,"##학년":16689,"문제를":16690,"##받고":16691,"대박":16692,"##한거":16693,"문제는":16694,"장난감":16695,"저렇게":16696,"샀어요":16697,"회복":16698,"스페":16699,"##란다":16700,"식당":16701,"모자":16702,"눈을":16703,"가입":16704,"누구나":16705,"시도":16706,"재밌":16707,"한참":16708,"손가락":16709,"##려구요":16710,"손이":16711,"1개":16712,"프린":16713,"의원":16714,"##주가":16715,"개념":16716,"지퍼":16717,"##커피":16718,"마이크":16719,"아까":16720,"##그래":16721,"##저것":16722,"일으":16723,"나와서":16724,"사실을":16725,"유니":16726,"시작했다":16727,"것과":16728,"마사지":16729,"거품":16730,"##먹을":16731,"비가":16732,"시행":16733,"##했네요":16734,"조명":16735,"두개":16736,"코스":16737,"197":16738,"더불어":16739,"열린":16740,"중에서":16741,"ch":16742,"##으로서":16743,"##세대":16744,"##시길":16745,"식물":16746,"##로를":16747,"빨간":16748,"약속":16749,"고객님":16750,"펼쳐":16751,"어쩌":16752,"오늘도":16753,"우리의":16754,"##웨어":16755,"단단":16756,"때가":16757,"##와는":16758,"유통기한":16759,"##ir":16760,"반면":16761,"##받아":16762,"프랑스":16763,"##보자":16764,"다음날":16765,"##차가":16766,"먹어도":16767,"##라며":16768,"가르":16769,"##도시":16770,"짧은":16771,"##성의":16772,"상세":16773,"##위는":16774,"자리를":16775,"의견":16776,"듯한":16777,"##기기":16778,"나온다":16779,"산책":16780,"아동":16781,"##씨가":16782,"##되기":16783,"학습":16784,"얼굴에":16785,"##줘서":16786,"유모차":16787,"실리콘":16788,"뒤집":16789,"즐거운":16790,"상관":16791,"소중":16792,"멀리":16793,"##전문":16794,"기저귀":16795,"성분이":16796,"##리오":16797,"##단에":16798,"전투":16799,"오랫":16800,"일정":16801,"##일부터":16802,"플라스틱":16803,"고생":16804,"자세한":16805,"##이와":16806,"발색":16807,"방법을":16808,"대한민국":16809,"##텐데":16810,"매출":16811,"낚시":16812,"선물로":16813,"부모님":16814,"사은":16815,"핸드폰":16816,"기능이":16817,"##되서":16818,"고양":16819,"됐다":16820,"모공":16821,"선생님":16822,"무릎":16823,"강력한":16824,"베이비":16825,"것에":16826,"글로벌":16827,"##으로부터":16828,"처음으로":16829,"돈을":16830,"##인치":16831,"##달러":16832,"늘어나":16833,"집안":16834,"##니까요":16835,"편의":16836,"##나가":16837,"예정이다":16838,"##리그":16839,"가고":16840,"##었네요":16841,"##치지":16842,"##분을":16843,"##리게":16844,"##대표":16845,"반영":16846,"경우도":16847,"원목":16848,"대중":16849,"도입":16850,"##ct":16851,"##실을":16852,"사이즈가":16853,"검은":16854,"출연":16855,"##11":16856,"##시기":16857,"들어오":16858,"추출":16859,"희망":16860,"##드리고":16861,"케어":16862,"기계":16863,"##마을":16864,"분들도":16865,"##화점":16866,"사람의":16867,"포장도":16868,"끈적":16869,"##면은":16870,"##크로":16871,"제한":16872,"2층":16873,"하나로":16874,"부분에":16875,"파악":16876,"며칠":16877,"해주는":16878,"##비는":16879,"아닐까":16880,"하셨":16881,"##어지는":16882,"사용하지":16883,"##거같":16884,"쉬운":16885,"보내주":16886,"아직도":16887,"바탕":16888,"##집에":16889,"사례":16890,"옷을":16891,"하나하나":16892,"##통을":16893,"가벼운":16894,"##석이":16895,"바른":16896,"다운":16897,"##조절":16898,"들어있":16899,"##용이":16900,"보여주":16901,"만들어진":16902,"이름을":16903,"하는데요":16904,"이번엔":16905,"##들고":16906,"뛰어난":16907,"인한":16908,"단체":16909,"##이즈":16910,"높이":16911,"##저기":16912,"적당한":16913,"좋지":16914,"색이":16915,"거부":16916,"가능하다":16917,"##역시":16918,"##40":16919,"우승":16920,"##고를":16921,"##용을":16922,"오염":16923,"심지어":16924,"물어":16925,"##자들의":16926,"아이스":16927,"효율":16928,"45":16929,"할수":16930,"##자들은":16931,"수출":16932,"저장":16933,"##테일":16934,"스키":16935,"##활동":16936,"##화장":16937,"강남":16938,"언론":16939,"예민":16940,"이유가":16941,"##형으로":16942,"##름이":16943,"크고":16944,"공간이":16945,"어쩔":16946,"보유":16947,"각질":16948,"##건강":16949,"대상으로":16950,"##가능한":16951,"##심이":16952,"개최":16953,"##사한":16954,"##관은":16955,"홍보":16956,"어디서":16957,"사람들":16958,"세련":16959,"특수":16960,"##그룹":16961,"골드":16962,"근육":16963,"##구는":16964,"이걸":16965,"즐겨":16966,"비밀":16967,"##행을":16968,"##서가":16969,"계절":16970,"마시고":16971,"저의":16972,"##가에":16973,"##경제":16974,"소금":16975,"##트리":16976,"32":16977,"있더라구요":16978,"성격":16979,"##드려요":16980,"이젠":16981,"회원":16982,"훈련":16983,"##조차":16984,"##등을":16985,"요건":16986,"##증이":16987,"다소":16988,"추억":16989,"##부에":16990,"##식품":16991,"##하셔서":16992,"##어지":16993,"제품의":16994,"##자고":16995,"##한게":16996,"##쿠션":16997,"과정에서":16998,"통합":16999,"나머지":17000,"아닌가":17001,"어떠":17002,"행정":17003,"드리":17004,"##산이":17005,"##가로":17006,"##해주고":17007,"설탕":17008,"좋은데":17009,"써보":17010,"##실에":17011,"안쪽":17012,"10년":17013,"퀄리티":17014,"가루":17015,"##60":17016,"##는게":17017,"sp":17018,"역시나":17019,"대상":17020,"##색으로":17021,"수익":17022,"##텐츠":17023,"연속":17024,"활성":17025,
[...]
